unsigned char fall_detection_model_tflite[] = {
  0x20, 0x00, 0x00, 0x00, 0x54, 0x46, 0x4c, 0x33, 0x00, 0x00, 0x00, 0x00,
  0x14, 0x00, 0x20, 0x00, 0x1c, 0x00, 0x18, 0x00, 0x14, 0x00, 0x10, 0x00,
  0x0c, 0x00, 0x00, 0x00, 0x08, 0x00, 0x04, 0x00, 0x14, 0x00, 0x00, 0x00,
  0x1c, 0x00, 0x00, 0x00, 0x8c, 0x00, 0x00, 0x00, 0x0c, 0x01, 0x00, 0x00,
  0xb0, 0x12, 0x00, 0x00, 0xc0, 0x12, 0x00, 0x00, 0xb4, 0x2d, 0x00, 0x00,
  0x03, 0x00, 0x00, 0x00, 0x01, 0x00, 0x00, 0x00, 0x04, 0x00, 0x00, 0x00,
  0x1e, 0xeb, 0xff, 0xff, 0x0c, 0x00, 0x00, 0x00, 0x1c, 0x00, 0x00, 0x00,
  0x3c, 0x00, 0x00, 0x00, 0x0f, 0x00, 0x00, 0x00, 0x73, 0x65, 0x72, 0x76,
  0x69, 0x6e, 0x67, 0x5f, 0x64, 0x65, 0x66, 0x61, 0x75, 0x6c, 0x74, 0x00,
  0x01, 0x00, 0x00, 0x00, 0x04, 0x00, 0x00, 0x00, 0x68, 0xff, 0xff, 0xff,
  0x19, 0x00, 0x00, 0x00, 0x04, 0x00, 0x00, 0x00, 0x08, 0x00, 0x00, 0x00,
  0x6f, 0x75, 0x74, 0x70, 0x75, 0x74, 0x5f, 0x30, 0x00, 0x00, 0x00, 0x00,
  0x01, 0x00, 0x00, 0x00, 0x04, 0x00, 0x00, 0x00, 0xd6, 0xed, 0xff, 0xff,
  0x04, 0x00, 0x00, 0x00, 0x0c, 0x00, 0x00, 0x00, 0x6b, 0x65, 0x72, 0x61,
  0x73, 0x5f, 0x74, 0x65, 0x6e, 0x73, 0x6f, 0x72, 0x00, 0x00, 0x00, 0x00,
  0x03, 0x00, 0x00, 0x00, 0x5c, 0x00, 0x00, 0x00, 0x2c, 0x00, 0x00, 0x00,
  0x04, 0x00, 0x00, 0x00, 0xb8, 0xff, 0xff, 0xff, 0x1d, 0x00, 0x00, 0x00,
  0x04, 0x00, 0x00, 0x00, 0x13, 0x00, 0x00, 0x00, 0x43, 0x4f, 0x4e, 0x56,
  0x45, 0x52, 0x53, 0x49, 0x4f, 0x4e, 0x5f, 0x4d, 0x45, 0x54, 0x41, 0x44,
  0x41, 0x54, 0x41, 0x00, 0xdc, 0xff, 0xff, 0xff, 0x1c, 0x00, 0x00, 0x00,
  0x04, 0x00, 0x00, 0x00, 0x13, 0x00, 0x00, 0x00, 0x6d, 0x69, 0x6e, 0x5f,
  0x72, 0x75, 0x6e, 0x74, 0x69, 0x6d, 0x65, 0x5f, 0x76, 0x65, 0x72, 0x73,
  0x69, 0x6f, 0x6e, 0x00, 0x08, 0x00, 0x0c, 0x00, 0x08, 0x00, 0x04, 0x00,
  0x08, 0x00, 0x00, 0x00, 0x1b, 0x00, 0x00, 0x00, 0x04, 0x00, 0x00, 0x00,
  0x13, 0x00, 0x00, 0x00, 0x6d, 0x69, 0x6e, 0x5f, 0x72, 0x75, 0x6e, 0x74,
  0x69, 0x6d, 0x65, 0x5f, 0x76, 0x65, 0x72, 0x73, 0x69, 0x6f, 0x6e, 0x00,
  0x1e, 0x00, 0x00, 0x00, 0xa0, 0x11, 0x00, 0x00, 0x98, 0x11, 0x00, 0x00,
  0x84, 0x11, 0x00, 0x00, 0x60, 0x11, 0x00, 0x00, 0x44, 0x11, 0x00, 0x00,
  0x30, 0x11, 0x00, 0x00, 0x18, 0x11, 0x00, 0x00, 0x04, 0x11, 0x00, 0x00,
  0xb4, 0x10, 0x00, 0x00, 0xa4, 0x0f, 0x00, 0x00, 0x94, 0x07, 0x00, 0x00,
  0x44, 0x07, 0x00, 0x00, 0x34, 0x03, 0x00, 0x00, 0xa4, 0x02, 0x00, 0x00,
  0x14, 0x01, 0x00, 0x00, 0x0c, 0x01, 0x00, 0x00, 0x04, 0x01, 0x00, 0x00,
  0xfc, 0x00, 0x00, 0x00, 0xf4, 0x00, 0x00, 0x00, 0xec, 0x00, 0x00, 0x00,
  0xe4, 0x00, 0x00, 0x00, 0xdc, 0x00, 0x00, 0x00, 0xd4, 0x00, 0x00, 0x00,
  0xcc, 0x00, 0x00, 0x00, 0xc4, 0x00, 0x00, 0x00, 0xbc, 0x00, 0x00, 0x00,
  0xb4, 0x00, 0x00, 0x00, 0x94, 0x00, 0x00, 0x00, 0x74, 0x00, 0x00, 0x00,
  0x04, 0x00, 0x00, 0x00, 0xf2, 0xee, 0xff, 0xff, 0x04, 0x00, 0x00, 0x00,
  0x60, 0x00, 0x00, 0x00, 0x0c, 0x00, 0x00, 0x00, 0x08, 0x00, 0x0e, 0x00,
  0x08, 0x00, 0x04, 0x00, 0x08, 0x00, 0x00, 0x00, 0x10, 0x00, 0x00, 0x00,
  0x28, 0x00, 0x00, 0x00, 0x00, 0x00, 0x06, 0x00, 0x08, 0x00, 0x04, 0x00,
  0x06, 0x00, 0x00, 0x00, 0x04, 0x00, 0x00, 0x00, 0x01, 0x00, 0x00, 0x00,
  0xeb, 0x03, 0x00, 0x00, 0x0c, 0x00, 0x18, 0x00, 0x14, 0x00, 0x10, 0x00,
  0x0c, 0x00, 0x04, 0x00, 0x0c, 0x00, 0x00, 0x00, 0x47, 0xc8, 0xf6, 0xf0,
  0xdd, 0x6e, 0xd9, 0x55, 0x02, 0x00, 0x00, 0x00, 0x02, 0x00, 0x00, 0x00,
  0x04, 0x00, 0x00, 0x00, 0x06, 0x00, 0x00, 0x00, 0x32, 0x2e, 0x31, 0x39,
  0x2e, 0x30, 0x00, 0x00, 0x5e, 0xef, 0xff, 0xff, 0x04, 0x00, 0x00, 0x00,
  0x10, 0x00, 0x00, 0x00, 0x00, 0x00, 0x00, 0x00, 0x00, 0x00, 0x00, 0x00,
  0x00, 0x00, 0x00, 0x00, 0x00, 0x00, 0x00, 0x00, 0x7a, 0xef, 0xff, 0xff,
  0x04, 0x00, 0x00, 0x00, 0x10, 0x00, 0x00, 0x00, 0x31, 0x2e, 0x31, 0x34,
  0x2e, 0x30, 0x00, 0x00, 0x00, 0x00, 0x00, 0x00, 0x00, 0x00, 0x00, 0x00,
  0x34, 0xd5, 0xff, 0xff, 0x38, 0xd5, 0xff, 0xff, 0x3c, 0xd5, 0xff, 0xff,
  0x40, 0xd5, 0xff, 0xff, 0x44, 0xd5, 0xff, 0xff, 0x48, 0xd5, 0xff, 0xff,
  0x4c, 0xd5, 0xff, 0xff, 0x50, 0xd5, 0xff, 0xff, 0x54, 0xd5, 0xff, 0xff,
  0x58, 0xd5, 0xff, 0xff, 0x5c, 0xd5, 0xff, 0xff, 0x60, 0xd5, 0xff, 0xff,
  0xc6, 0xef, 0xff, 0xff, 0x04, 0x00, 0x00, 0x00, 0x80, 0x01, 0x00, 0x00,
  0x7f, 0xa1, 0x6f, 0x03, 0x0d, 0x0a, 0x4d, 0xcb, 0xa9, 0xdf, 0x1e, 0x43,
  0x46, 0x56, 0xaa, 0x95, 0x87, 0xc0, 0xdb, 0xbf, 0x3b, 0x49, 0x81, 0xf0,
  0x7f, 0xa1, 0x24, 0x29, 0x2a, 0x1f, 0x68, 0x1b, 0x2e, 0x3b, 0xe5, 0x2c,
  0x7f, 0x35, 0x23, 0x08, 0xbb, 0xfb, 0x36, 0xd4, 0x54, 0x45, 0x53, 0xf7,
  0xd9, 0x0f, 0x8c, 0xc4, 0xd4, 0xa2, 0xfa, 0xe2, 0x0e, 0x7f, 0xda, 0xb7,
  0xa2, 0x7f, 0xff, 0x09, 0x07, 0x3d, 0x3f, 0xba, 0xa3, 0x99, 0x67, 0xcd,
  0xdb, 0xbf, 0x81, 0x0a, 0xf0, 0xde, 0xcd, 0xba, 0xe7, 0xef, 0x0d, 0xba,
  0xff, 0x00, 0xe6, 0xd8, 0x0a, 0xef, 0x15, 0xd6, 0x7f, 0x35, 0xd4, 0x17,
  0x7b, 0x49, 0xed, 0x07, 0x3b, 0x09, 0x81, 0x9a, 0xd4, 0x27, 0x34, 0xc6,
  0xdb, 0x03, 0x7c, 0x17, 0xb9, 0xbc, 0x0e, 0x23, 0x7f, 0x4b, 0x52, 0x37,
  0xfa, 0xfd, 0x30, 0xe9, 0x7f, 0xb0, 0x15, 0xda, 0x00, 0xbb, 0x01, 0x1a,
  0xd5, 0xe3, 0xaf, 0x9e, 0x2b, 0xbd, 0xe8, 0xd9, 0xdd, 0x4d, 0x4a, 0x7f,
  0xa0, 0x6b, 0x6c, 0x0e, 0x25, 0x12, 0x2d, 0xe3, 0x7f, 0xe6, 0x45, 0xc0,
  0x98, 0x9a, 0x1a, 0x85, 0x1e, 0x2d, 0x7f, 0x84, 0x33, 0x23, 0xd0, 0xdd,
  0x92, 0x81, 0x8e, 0x26, 0xff, 0x2f, 0x3c, 0x4c, 0x05, 0x47, 0x1b, 0xcd,
  0x81, 0xe6, 0x34, 0x02, 0xf1, 0xfc, 0xb2, 0x1c, 0x34, 0x2e, 0x18, 0x01,
  0xe2, 0x7f, 0xf0, 0xf1, 0x0c, 0xf2, 0x4b, 0x3c, 0xcf, 0x12, 0x15, 0x2c,
  0xc4, 0xd3, 0x58, 0xad, 0x01, 0x81, 0x16, 0x1d, 0xa5, 0x47, 0x63, 0x02,
  0x30, 0x66, 0xe4, 0xd5, 0xe3, 0x81, 0x24, 0x1a, 0x20, 0xf8, 0x18, 0xe6,
  0x81, 0x7c, 0xe9, 0xfc, 0xf9, 0x9a, 0xb2, 0xfc, 0x9c, 0xe6, 0xa1, 0x21,
  0x11, 0xba, 0x38, 0x21, 0xe4, 0xae, 0xe9, 0x56, 0x3c, 0x7f, 0x03, 0xc8,
  0x7f, 0x50, 0x01, 0x20, 0x17, 0x03, 0x9f, 0x5c, 0x28, 0xe0, 0xee, 0xf1,
  0x1a, 0xd1, 0x41, 0x12, 0x25, 0x13, 0x1c, 0x8e, 0xd0, 0x8a, 0xa4, 0x81,
  0xe8, 0x25, 0x0a, 0x0a, 0xf5, 0xeb, 0x0d, 0xe4, 0x58, 0xe2, 0x7f, 0xc3,
  0x7f, 0x10, 0xcc, 0xf0, 0xf1, 0xf1, 0x2f, 0x49, 0xef, 0xf3, 0xe2, 0x2c,
  0x16, 0x81, 0xd8, 0xfd, 0x1e, 0x2a, 0x06, 0x20, 0xf1, 0xf5, 0xf4, 0x26,
  0x63, 0x5a, 0x81, 0xe7, 0x15, 0xde, 0x4d, 0xe9, 0x89, 0x1b, 0xcc, 0xaf,
  0x26, 0xfe, 0x7f, 0x61, 0xef, 0x16, 0xf6, 0x07, 0x73, 0x85, 0xee, 0x58,
  0x7f, 0x8a, 0x1f, 0x5a, 0xd1, 0xcc, 0xbb, 0x38, 0x02, 0xf9, 0x2f, 0x37,
  0x22, 0x11, 0x81, 0x79, 0x24, 0x0b, 0x21, 0xfe, 0xe4, 0xe4, 0x5f, 0xcc,
  0x96, 0x29, 0xc5, 0x11, 0x27, 0x26, 0x7f, 0x2a, 0x40, 0x1a, 0xf8, 0xf7,
  0x7f, 0x01, 0xe8, 0xca, 0xc2, 0x37, 0x10, 0x21, 0xe7, 0x3b, 0x42, 0x25,
  0x52, 0xf1, 0xff, 0xff, 0x04, 0x00, 0x00, 0x00, 0x80, 0x00, 0x00, 0x00,
  0x6b, 0x00, 0x00, 0x00, 0x0a, 0xf5, 0xff, 0xff, 0xca, 0xf9, 0xff, 0xff,
  0xc9, 0xfd, 0xff, 0xff, 0xf5, 0x0f, 0x00, 0x00, 0xb8, 0xfa, 0xff, 0xff,
  0x11, 0xfa, 0xff, 0xff, 0x86, 0xfc, 0xff, 0xff, 0x16, 0xfb, 0xff, 0xff,
  0xaf, 0xe8, 0xff, 0xff, 0x33, 0xfb, 0xff, 0xff, 0x9c, 0x05, 0x00, 0x00,
  0x2d, 0xf6, 0xff, 0xff, 0xfd, 0xf1, 0xff, 0xff, 0x27, 0xf5, 0xff, 0xff,
  0x45, 0xf7, 0xff, 0xff, 0xcd, 0xfa, 0xff, 0xff, 0xd2, 0xfa, 0xff, 0xff,
  0x09, 0x30, 0x00, 0x00, 0x47, 0xf5, 0xff, 0xff, 0x50, 0x07, 0x00, 0x00,
  0xd7, 0xf9, 0xff, 0xff, 0x70, 0xee, 0xff, 0xff, 0x6b, 0x05, 0x00, 0x00,
  0xed, 0x01, 0x00, 0x00, 0xe7, 0xfd, 0xff, 0xff, 0x73, 0xfa, 0xff, 0xff,
  0x1b, 0x05, 0x00, 0x00, 0x96, 0xf7, 0xff, 0xff, 0xca, 0x05, 0x00, 0x00,
  0xcb, 0xfc, 0xff, 0xff, 0x1e, 0xfb, 0xff, 0xff, 0xde, 0xf1, 0xff, 0xff,
  0x04, 0x00, 0x00, 0x00, 0x00, 0x04, 0x00, 0x00, 0x21, 0x09, 0xe3, 0x2e,
  0x28, 0xcb, 0xd6, 0x01, 0xf2, 0x0d, 0xf1, 0xdd, 0xfb, 0x2d, 0x20, 0xf5,
  0xe1, 0xf1, 0x27, 0xb3, 0x21, 0x23, 0x14, 0xd7, 0xbc, 0xa9, 0xae, 0x05,
  0xbd, 0xff, 0xba, 0xad, 0x08, 0x10, 0xf7, 0xc1, 0x2f, 0x2c, 0xb2, 0xd9,
  0xd5, 0x18, 0x20, 0x0b, 0xce, 0xcc, 0xde, 0x10, 0xd5, 0x37, 0x26, 0x2a,
  0x35, 0x81, 0xbb, 0xdf, 0xf8, 0xff, 0x13, 0xd1, 0x30, 0xfe, 0xfb, 0xab,
  0x4a, 0x0e, 0xe2, 0x3a, 0xef, 0xf8, 0x26, 0x28, 0x34, 0x9c, 0x1d, 0xfd,
  0x18, 0x19, 0x17, 0x48, 0x44, 0x2d, 0x1c, 0x45, 0xb5, 0x7f, 0x1e, 0x1c,
  0x21, 0xb7, 0x05, 0xd5, 0x48, 0x35, 0xf9, 0x01, 0x22, 0x05, 0xf2, 0x3c,
  0xca, 0x07, 0x06, 0xc2, 0x1c, 0x0a, 0xcd, 0xe6, 0x2e, 0x1f, 0x26, 0xf0,
  0xb9, 0x00, 0xd2, 0x00, 0xea, 0xf2, 0xe8, 0xfc, 0x38, 0x08, 0xfb, 0xbb,
  0x27, 0xc5, 0x08, 0x26, 0xf6, 0x21, 0x1b, 0x3a, 0xe1, 0xd2, 0x0e, 0xe8,
  0x49, 0x4b, 0x0f, 0x09, 0x43, 0x0c, 0x49, 0x38, 0x1f, 0xfc, 0xa4, 0x09,
  0xbf, 0x35, 0xfe, 0xff, 0x28, 0x03, 0x42, 0x0d, 0x42, 0xf0, 0xf1, 0x56,
  0xf0, 0x49, 0x29, 0x1b, 0xeb, 0xdd, 0x0f, 0x00, 0x08, 0x73, 0x23, 0xbe,
  0x07, 0x1a, 0x1b, 0x0d, 0x22, 0x3a, 0x81, 0x3a, 0xef, 0x19, 0x36, 0xfb,
  0x1b, 0xf9, 0x29, 0xf9, 0x4d, 0x2d, 0x33, 0x07, 0xdc, 0x1a, 0xde, 0xfd,
  0x9a, 0xf8, 0xc1, 0xe6, 0x2b, 0x4a, 0x23, 0xbe, 0xfb, 0x02, 0xf2, 0x21,
  0x34, 0x13, 0x09, 0xf0, 0xfa, 0xeb, 0xf8, 0x11, 0xfd, 0xea, 0x2d, 0x1a,
  0xf2, 0xfc, 0xf2, 0x1b, 0x22, 0x46, 0x32, 0x2c, 0xef, 0xae, 0x81, 0x49,
  0xfa, 0x23, 0xf6, 0xf1, 0x1f, 0x26, 0xde, 0x1e, 0x08, 0xe9, 0xd3, 0x13,
  0xc1, 0xee, 0x1c, 0xda, 0xf4, 0x3e, 0x0b, 0x16, 0x04, 0xf0, 0x0e, 0xf0,
  0xff, 0x34, 0xe7, 0xd0, 0xf7, 0x2b, 0x50, 0xc5, 0x0c, 0x1a, 0xd3, 0xec,
  0x8d, 0xe6, 0xe8, 0xea, 0x14, 0x6e, 0xc8, 0x14, 0x0b, 0x0b, 0x1a, 0x18,
  0x2a, 0xc1, 0x5e, 0xea, 0xa4, 0x48, 0x81, 0x04, 0x9c, 0x0a, 0xe0, 0x12,
  0xfd, 0xf3, 0x01, 0xd1, 0x1e, 0x2c, 0x38, 0x2c, 0xc1, 0xcd, 0x0a, 0xd5,
  0x1c, 0xf2, 0xef, 0xca, 0xd9, 0x09, 0xb0, 0xfd, 0x02, 0x3b, 0x1a, 0xe6,
  0xea, 0x06, 0xe9, 0x15, 0x09, 0x81, 0x31, 0xe6, 0x0a, 0x07, 0x46, 0xe5,
  0x76, 0xf6, 0xae, 0x24, 0xdb, 0x31, 0x27, 0x47, 0x69, 0x43, 0xcf, 0x6e,
  0xfd, 0x50, 0x1e, 0x82, 0x2a, 0x1f, 0xb2, 0xaa, 0x11, 0x2a, 0x1c, 0x07,
  0x3d, 0x6d, 0x46, 0x32, 0x26, 0x47, 0x43, 0xe1, 0x29, 0xa2, 0x23, 0x2f,
  0xc7, 0x2b, 0xf6, 0x24, 0x07, 0xc0, 0xb8, 0x1f, 0xd8, 0x13, 0x1e, 0xee,
  0x40, 0xbd, 0x1b, 0x00, 0x2c, 0x8f, 0x39, 0x12, 0x31, 0x35, 0x14, 0x3d,
  0xe8, 0xe2, 0x58, 0x04, 0x50, 0xa8, 0xdf, 0xe1, 0xe9, 0x3c, 0x2e, 0x50,
  0x2c, 0x07, 0xe3, 0x1d, 0x2e, 0x48, 0x11, 0x04, 0x71, 0x2a, 0x2a, 0xd3,
  0x3f, 0xc4, 0x17, 0x04, 0x00, 0x04, 0xd8, 0x6b, 0xd2, 0xf7, 0xe2, 0xeb,
  0xf9, 0xe1, 0x81, 0x0a, 0xc7, 0xec, 0x12, 0x2b, 0x2c, 0x4d, 0xe7, 0xda,
  0x08, 0xef, 0xef, 0xf7, 0xb7, 0x05, 0x0a, 0x9c, 0x1b, 0xd6, 0x2f, 0xe7,
  0x3c, 0x7f, 0x28, 0x08, 0xbb, 0x47, 0x07, 0xe1, 0x65, 0x99, 0xf1, 0xe5,
  0x3c, 0x3f, 0x33, 0x5b, 0x32, 0x2f, 0x09, 0x35, 0x16, 0x33, 0x63, 0xea,
  0x1b, 0xff, 0x3c, 0x02, 0x2b, 0xe7, 0x15, 0x2f, 0xfc, 0xdc, 0x18, 0x18,
  0xbc, 0xe9, 0x26, 0xee, 0xf6, 0xdc, 0xe7, 0x04, 0xf1, 0x06, 0xf2, 0x16,
  0xfc, 0x01, 0x07, 0xf3, 0x06, 0xf3, 0xd6, 0x0f, 0xc1, 0xe6, 0x00, 0xf3,
  0x19, 0xd5, 0x00, 0x05, 0x07, 0xc2, 0xc0, 0x23, 0xbb, 0xf4, 0xf4, 0xd9,
  0x13, 0x24, 0x0e, 0xf1, 0x12, 0xb3, 0x89, 0x03, 0xde, 0xe9, 0xf5, 0xdc,
  0xb2, 0xfb, 0x9e, 0xbb, 0x13, 0x3d, 0x04, 0x0e, 0x02, 0x01, 0xff, 0x95,
  0xea, 0x27, 0xe8, 0x2d, 0x49, 0xf0, 0xd9, 0x0e, 0x09, 0x37, 0xd0, 0x1d,
  0x81, 0xf8, 0x2c, 0xaf, 0xfe, 0xc8, 0x39, 0xfe, 0x39, 0x1d, 0xd9, 0x2d,
  0xb2, 0x37, 0xdc, 0x00, 0xe6, 0x22, 0xcc, 0xe4, 0xf9, 0x48, 0xf2, 0x09,
  0x81, 0x0f, 0x33, 0x1b, 0x11, 0x4e, 0xfb, 0xe5, 0x45, 0x1a, 0xe4, 0x1f,
  0x00, 0xfc, 0xbc, 0x0d, 0xdc, 0x29, 0x13, 0xec, 0x11, 0xeb, 0x49, 0xf3,
  0x3a, 0x22, 0xf2, 0x41, 0xf2, 0x1b, 0x24, 0x27, 0x98, 0xf1, 0xd1, 0x15,
  0xdb, 0x16, 0x04, 0xb7, 0x19, 0x13, 0xff, 0x11, 0x1e, 0x3e, 0xe6, 0xf0,
  0xfd, 0x07, 0xed, 0x25, 0x1d, 0x04, 0x45, 0x29, 0xd3, 0x28, 0x4f, 0x1e,
  0x49, 0x4b, 0x3c, 0x3d, 0xf7, 0x15, 0x14, 0xe8, 0x58, 0xb8, 0x39, 0xdf,
  0xf1, 0x51, 0x3d, 0x7f, 0x1e, 0x12, 0xbe, 0x1d, 0xcd, 0x35, 0x0c, 0xfc,
  0x18, 0xd7, 0x6d, 0xe5, 0x59, 0x29, 0x60, 0x32, 0x09, 0x55, 0xf2, 0x1b,
  0xd1, 0x2c, 0xe0, 0x20, 0x18, 0xbf, 0xe1, 0x14, 0x1c, 0x2b, 0x26, 0x3b,
  0x1d, 0xfe, 0x0d, 0x00, 0xd6, 0x15, 0x11, 0xdb, 0x13, 0xce, 0x61, 0x06,
  0x18, 0xe6, 0x41, 0x44, 0x94, 0x2b, 0xc3, 0x41, 0x13, 0xb0, 0x22, 0xea,
  0x06, 0x7f, 0xb7, 0xfc, 0xfd, 0x23, 0x28, 0x12, 0xd4, 0xf6, 0x0f, 0x0c,
  0xf8, 0xfd, 0x0c, 0x06, 0xff, 0xee, 0xd1, 0x02, 0x1b, 0x21, 0xfc, 0x04,
  0xf5, 0xf1, 0xaf, 0xec, 0xfd, 0xef, 0x3d, 0xfc, 0xca, 0x11, 0x10, 0xda,
  0x23, 0xd4, 0x0f, 0x1f, 0x06, 0x3f, 0xe6, 0xc7, 0xe6, 0x00, 0x18, 0xdd,
  0xf1, 0xc5, 0x30, 0xfd, 0xd2, 0xd4, 0xee, 0xea, 0xed, 0x49, 0xca, 0x07,
  0x37, 0xcb, 0xc2, 0xeb, 0x1e, 0x2e, 0x14, 0x21, 0xdd, 0x01, 0x20, 0xa6,
  0xf2, 0x2e, 0xfb, 0x0e, 0x18, 0xfd, 0xe3, 0x01, 0x05, 0x0d, 0xbc, 0x0f,
  0x1e, 0x26, 0xcb, 0xe4, 0xf6, 0x00, 0xe6, 0xd0, 0xe8, 0x07, 0xf2, 0xe9,
  0xae, 0x13, 0x36, 0xda, 0x0b, 0xe6, 0x0d, 0x1f, 0x0a, 0xde, 0x02, 0xff,
  0xeb, 0xd4, 0x10, 0x0d, 0xf8, 0x18, 0x12, 0xf7, 0xe1, 0x12, 0x24, 0x81,
  0xe2, 0x16, 0xf0, 0x05, 0xd5, 0x68, 0x09, 0xf6, 0x5f, 0x98, 0x9a, 0x8b,
  0x29, 0xc6, 0xf5, 0x44, 0x33, 0x69, 0x24, 0x26, 0x43, 0x5a, 0x81, 0x1b,
  0x3d, 0xaf, 0xd3, 0xdd, 0x55, 0xf4, 0x00, 0x1c, 0xef, 0x17, 0xd2, 0x1d,
  0x24, 0xf6, 0x02, 0xd9, 0xe3, 0xe3, 0x1a, 0xd1, 0x28, 0xf9, 0x1e, 0x0d,
  0x56, 0xff, 0xde, 0x16, 0xe9, 0xf6, 0x44, 0xf3, 0x08, 0xa1, 0x06, 0xcd,
  0x1a, 0xaf, 0xd2, 0x22, 0x02, 0x2b, 0x25, 0x1d, 0xf3, 0x03, 0xd0, 0xf7,
  0xe9, 0xd7, 0xea, 0xf0, 0xc7, 0xa6, 0xb7, 0xd9, 0x34, 0x40, 0xf6, 0x22,
  0xcf, 0x02, 0xd9, 0xde, 0x30, 0x12, 0xea, 0x0c, 0xdd, 0x1e, 0xd9, 0xe6,
  0xf1, 0x43, 0x2b, 0x81, 0x0f, 0x05, 0x1c, 0xe6, 0x1b, 0x0c, 0x07, 0x24,
  0xd0, 0xd1, 0x24, 0x0c, 0x3c, 0x24, 0xc5, 0x1b, 0xba, 0xee, 0x0c, 0xa9,
  0x47, 0x29, 0x3b, 0xb9, 0x00, 0x1d, 0xe3, 0x33, 0xc2, 0x28, 0x4d, 0x03,
  0x9f, 0x11, 0x4a, 0x01, 0x2e, 0x49, 0x33, 0xa8, 0x10, 0x49, 0xed, 0x59,
  0x33, 0x2e, 0x9d, 0x5f, 0xfe, 0x32, 0x59, 0xdb, 0x16, 0x0c, 0x7f, 0xe1,
  0xe9, 0xd5, 0x2a, 0x20, 0xcf, 0x56, 0x44, 0x3f, 0xcd, 0xe9, 0x01, 0x4b,
  0xd5, 0x7f, 0x44, 0xff, 0x44, 0xf9, 0xe7, 0x4d, 0x2e, 0x4b, 0xb0, 0x03,
  0x13, 0x1d, 0x1c, 0xf1, 0x23, 0xd6, 0x42, 0x09, 0x50, 0x1d, 0xee, 0x0d,
  0xea, 0xf5, 0xff, 0xff, 0x04, 0x00, 0x00, 0x00, 0x40, 0x00, 0x00, 0x00,
  0x55, 0xfe, 0xff, 0xff, 0xf2, 0xfb, 0xff, 0xff, 0xee, 0xea, 0xff, 0xff,
  0xe3, 0xf7, 0xff, 0xff, 0x58, 0xfd, 0xff, 0xff, 0x1a, 0xf6, 0xff, 0xff,
  0x67, 0xfa, 0xff, 0xff, 0x74, 0xf7, 0xff, 0xff, 0xc2, 0x08, 0x00, 0x00,
  0xa8, 0xf2, 0xff, 0xff, 0xd9, 0xf5, 0xff, 0xff, 0xdf, 0xfc, 0xff, 0xff,
  0x15, 0x01, 0x00, 0x00, 0xb0, 0xfb, 0xff, 0xff, 0x4e, 0xfd, 0xff, 0xff,
  0xd7, 0xe8, 0xff, 0xff, 0x36, 0xf6, 0xff, 0xff, 0x04, 0x00, 0x00, 0x00,
  0x00, 0x08, 0x00, 0x00, 0x3b, 0x9f, 0xf3, 0x63, 0x7f, 0xab, 0xd2, 0x9d,
  0x37, 0x3a, 0xb8, 0x15, 0x33, 0xf4, 0x56, 0x15, 0x0b, 0xc4, 0x1b, 0x25,
  0x5b, 0xf7, 0xcb, 0xc1, 0x31, 0x1a, 0x91, 0x42, 0x45, 0xcc, 0x52, 0x2b,
  0xc7, 0xe5, 0x27, 0x34, 0x1b, 0xeb, 0xf6, 0xf7, 0x95, 0x0e, 0x1f, 0xe2,
  0x07, 0x2f, 0x5d, 0x2d, 0xd6, 0xca, 0x03, 0x1d, 0x13, 0x49, 0x04, 0xd5,
  0xab, 0x6c, 0x51, 0x12, 0x02, 0x1a, 0x7f, 0x5c, 0x2b, 0xdb, 0x33, 0x3d,
  0x7f, 0x05, 0xe7, 0xe1, 0x15, 0x61, 0xc5, 0x29, 0x3a, 0xdf, 0x3e, 0x3a,
  0x03, 0xdd, 0x2b, 0x51, 0x55, 0xf1, 0xdc, 0xd9, 0x0b, 0x2c, 0xe6, 0x40,
  0x29, 0xbf, 0x45, 0x50, 0xd9, 0x28, 0xfa, 0xc8, 0xa4, 0x73, 0x25, 0x66,
  0xce, 0x9c, 0x6f, 0xb8, 0xd5, 0x15, 0xb9, 0xa5, 0xda, 0x7a, 0x81, 0xb5,
  0xc0, 0x2c, 0x25, 0x7c, 0xfe, 0xb9, 0x1f, 0x89, 0xd3, 0x1e, 0x95, 0xd8,
  0x3d, 0xb8, 0x21, 0x40, 0x44, 0xed, 0xe8, 0xe6, 0x41, 0x55, 0xcf, 0x30,
  0x22, 0xdd, 0x41, 0x47, 0x13, 0xdd, 0x2a, 0x2b, 0x7f, 0xc8, 0x02, 0xca,
  0x15, 0x6c, 0xf4, 0x37, 0x16, 0xef, 0x52, 0x52, 0x02, 0x45, 0xd8, 0x94,
  0xcc, 0x08, 0x2e, 0x3f, 0xf9, 0xd0, 0x5d, 0xbc, 0xaa, 0x44, 0xe3, 0xba,
  0xf4, 0xea, 0xdd, 0xb8, 0xeb, 0x30, 0x48, 0x4a, 0x23, 0x9e, 0x7f, 0xcc,
  0xd0, 0x0e, 0xb6, 0x85, 0x1b, 0xa9, 0x23, 0x66, 0x35, 0xb2, 0xf0, 0xaf,
  0x30, 0x01, 0xc2, 0x34, 0x3b, 0xca, 0x0b, 0x2f, 0x16, 0xcf, 0xe8, 0x21,
  0x3b, 0xe2, 0xed, 0xd8, 0x43, 0xe2, 0x81, 0x47, 0x3f, 0xd3, 0x06, 0x15,
  0xc2, 0x34, 0x9d, 0xbf, 0xb7, 0x1f, 0x4e, 0x6c, 0xfe, 0x81, 0x4c, 0xd7,
  0xeb, 0x1f, 0xde, 0xc8, 0x0c, 0x43, 0xa0, 0xea, 0xb9, 0x11, 0x47, 0x55,
  0x09, 0xe4, 0x46, 0xa2, 0xc5, 0x2b, 0xe2, 0xa6, 0x2c, 0x97, 0x3b, 0x55,
  0x65, 0xa2, 0xd4, 0x81, 0x34, 0x50, 0xd8, 0x3c, 0x56, 0xca, 0x77, 0x12,
  0xff, 0xdd, 0x3a, 0x29, 0x53, 0x03, 0xe1, 0xa1, 0x72, 0x29, 0x90, 0x3e,
  0x2b, 0xdb, 0x61, 0x2e, 0xc3, 0x7f, 0x88, 0x95, 0x9e, 0x34, 0x1f, 0x73,
  0xde, 0x85, 0xfe, 0xc7, 0xeb, 0x1e, 0xa9, 0xa3, 0xc0, 0x1c, 0xfb, 0xfe,
  0xc9, 0x50, 0x26, 0x71, 0xfd, 0x9d, 0x75, 0xf9, 0x09, 0x27, 0xb0, 0xb8,
  0x29, 0x9f, 0x50, 0x58, 0x46, 0xe2, 0xd4, 0xf1, 0x2b, 0x14, 0xce, 0x12,
  0x31, 0xfd, 0x49, 0x69, 0x26, 0xdb, 0x4a, 0x2f, 0x7f, 0xe2, 0xf9, 0xb4,
  0x17, 0x51, 0xd6, 0x09, 0x4e, 0xd4, 0x61, 0x1e, 0xc9, 0x4c, 0xbe, 0x85,
  0xac, 0x65, 0x4a, 0x78, 0xd3, 0x9b, 0x3a, 0x8c, 0xa5, 0x38, 0x9c, 0x95,
  0xfa, 0x56, 0xba, 0xb2, 0xc4, 0x35, 0x2d, 0x2b, 0xf8, 0xdc, 0x4e, 0xc7,
  0xd0, 0x33, 0x98, 0x81, 0x2b, 0xd0, 0xd8, 0x7f, 0x5c, 0xd8, 0xd2, 0xa8,
  0x1b, 0x09, 0x9a, 0x45, 0x2c, 0xe6, 0x4a, 0x00, 0x24, 0xf2, 0xe5, 0x1e,
  0x2a, 0xce, 0xef, 0xd2, 0x3d, 0x34, 0xab, 0x31, 0x1a, 0xf0, 0x22, 0xfd,
  0x38, 0xc1, 0x43, 0x70, 0x5a, 0xab, 0xe1, 0xb0, 0x37, 0x21, 0xc4, 0x52,
  0x12, 0xe4, 0x5c, 0x62, 0x0d, 0xc1, 0x22, 0x25, 0x7f, 0xe2, 0xcc, 0xfc,
  0x10, 0x39, 0xce, 0x2d, 0x43, 0xcd, 0x3e, 0x4e, 0xaf, 0x4d, 0xe2, 0xcf,
  0xaa, 0x46, 0x57, 0x75, 0xfa, 0xa2, 0x1e, 0xc9, 0xd1, 0x39, 0x99, 0x9d,
  0xd8, 0x54, 0x99, 0x04, 0xc1, 0x59, 0x37, 0x76, 0x03, 0xe3, 0x4e, 0x9f,
  0xd2, 0x2e, 0xd1, 0x81, 0xed, 0x7f, 0xbb, 0xdf, 0xad, 0x3e, 0x4e, 0x48,
  0xd9, 0xaf, 0x58, 0xe8, 0xe7, 0x31, 0xc2, 0xbf, 0x02, 0x2f, 0xa9, 0xd6,
  0xd9, 0x26, 0x37, 0x65, 0xd3, 0xce, 0x3e, 0xc1, 0x06, 0x37, 0xbd, 0x8d,
  0xf1, 0x4c, 0xa6, 0xab, 0xb4, 0x1c, 0x40, 0x7f, 0xd8, 0xf3, 0x5d, 0xdf,
  0xf0, 0x26, 0xce, 0xa6, 0xd8, 0x3e, 0xc7, 0xba, 0xcb, 0x3f, 0x30, 0x68,
  0xeb, 0xa1, 0x30, 0x91, 0x00, 0x15, 0xc0, 0xd1, 0xbe, 0x78, 0xb6, 0xc0,
  0xc3, 0x0d, 0x3f, 0x7f, 0xdc, 0xaf, 0x31, 0xce, 0xca, 0xfe, 0xc0, 0xb6,
  0xce, 0x2e, 0xa8, 0x00, 0xc0, 0xfe, 0x23, 0x2e, 0x17, 0xd7, 0x45, 0xcb,
  0x04, 0x0a, 0xd5, 0xb2, 0xf2, 0xdd, 0xbd, 0x52, 0xf6, 0xe3, 0xcc, 0xa8,
  0x61, 0xcb, 0xa0, 0x5f, 0xeb, 0x0f, 0x42, 0xe9, 0xee, 0x10, 0x94, 0xb8,
  0x49, 0x95, 0xd5, 0xf9, 0xda, 0xd7, 0xb4, 0x77, 0x7f, 0xf0, 0x05, 0xdc,
  0xba, 0x32, 0xc7, 0xcd, 0xa3, 0x41, 0x39, 0x6d, 0xde, 0x96, 0x1b, 0xe3,
  0x08, 0x31, 0x9c, 0xd7, 0xff, 0x43, 0x87, 0xbb, 0xcf, 0x30, 0x43, 0x45,
  0xe0, 0xe0, 0x45, 0xc5, 0xe4, 0xfd, 0xd6, 0x81, 0xf3, 0x52, 0xb9, 0x9f,
  0xb7, 0x5f, 0x3c, 0x7f, 0xe8, 0xe6, 0x5d, 0xe7, 0xea, 0xfc, 0xa2, 0xa6,
  0x02, 0x32, 0xc8, 0xb8, 0xe7, 0xf8, 0x41, 0x72, 0xd6, 0x8c, 0x5e, 0xd1,
  0xf5, 0x2e, 0xc4, 0x8d, 0x38, 0x9f, 0x08, 0x5c, 0x52, 0xc0, 0xdb, 0x9e,
  0x53, 0x52, 0x91, 0x2e, 0x1b, 0xce, 0x33, 0x0a, 0x19, 0xdd, 0xd7, 0x54,
  0x77, 0xc7, 0xe2, 0xb2, 0x41, 0xe3, 0x81, 0x26, 0x53, 0xba, 0x53, 0x26,
  0x2d, 0xb0, 0x67, 0x71, 0x7f, 0xdd, 0xe6, 0xc3, 0x61, 0x36, 0xcd, 0x5e,
  0x09, 0xce, 0x30, 0x5b, 0x3e, 0xa0, 0x61, 0x30, 0x6a, 0x0a, 0xd4, 0xf2,
  0x29, 0x75, 0xd6, 0x73, 0x32, 0xc3, 0x2c, 0x21, 0xb0, 0xaf, 0x38, 0x50,
  0x16, 0xea, 0xef, 0x30, 0x9d, 0x41, 0xf6, 0xed, 0x0f, 0xea, 0x4f, 0x11,
  0xf6, 0xf9, 0x40, 0x0c, 0x51, 0xeb, 0xb4, 0x05, 0xcf, 0x7f, 0x2f, 0x0f,
  0x09, 0xbd, 0xfd, 0x5f, 0xf8, 0x0f, 0x98, 0xd6, 0xac, 0x1a, 0x59, 0x58,
  0xdb, 0x8b, 0x52, 0xe8, 0xe6, 0xf4, 0xaa, 0xd7, 0x00, 0x59, 0xd7, 0xe0,
  0xbe, 0x12, 0x1a, 0x2c, 0xc3, 0x81, 0x58, 0xdb, 0x0c, 0x05, 0xeb, 0xad,
  0xe1, 0x24, 0x9c, 0x82, 0xa2, 0x4b, 0x6f, 0x75, 0xfa, 0xc2, 0x23, 0xe5,
  0xf7, 0x09, 0x96, 0xb6, 0x08, 0x1b, 0xc7, 0x90, 0x81, 0xfc, 0x31, 0x5c,
  0xbd, 0xc2, 0x6a, 0xb3, 0xbd, 0x2b, 0xc6, 0xa7, 0xeb, 0x1b, 0xab, 0xc5,
  0x81, 0x49, 0x4c, 0x71, 0xf1, 0xb4, 0x1b, 0xf2, 0xcb, 0xff, 0xaf, 0x8d,
  0xe1, 0x5e, 0xa6, 0x89, 0xc2, 0x40, 0x3b, 0x67, 0xe0, 0xc3, 0x65, 0xc2,
  0xdb, 0x47, 0xa7, 0x92, 0x3f, 0xa5, 0xdf, 0x7f, 0x68, 0xb8, 0xbd, 0x99,
  0x47, 0x4d, 0xcc, 0x56, 0x00, 0xd3, 0x3e, 0x31, 0x0f, 0xff, 0xf5, 0x47,
  0x38, 0xf5, 0xd4, 0xa2, 0x4c, 0x27, 0xbf, 0x3f, 0x3a, 0xd0, 0x59, 0x1a,
  0xdb, 0xc7, 0x1a, 0x4b, 0x14, 0x19, 0xe8, 0x1d, 0x9f, 0x66, 0x34, 0x4c,
  0xdd, 0xc9, 0x31, 0x78, 0xeb, 0xf3, 0x7a, 0x7f, 0xe0, 0x35, 0xd8, 0x13,
  0xc8, 0x27, 0xea, 0x42, 0xd8, 0x07, 0x38, 0x69, 0xcc, 0x50, 0xee, 0xd0,
  0xab, 0x3d, 0x2e, 0x6f, 0xcd, 0x81, 0x3f, 0xf2, 0x13, 0x3a, 0xd7, 0x90,
  0x03, 0x38, 0xde, 0xd0, 0x9f, 0x31, 0x40, 0x3c, 0xd4, 0x9a, 0x4b, 0xbd,
  0xf5, 0x1b, 0xa9, 0xd1, 0x10, 0x11, 0xd9, 0x0f, 0xde, 0x1b, 0x13, 0xec,
  0x1d, 0xd2, 0xda, 0x1e, 0xce, 0xe2, 0xd3, 0xa9, 0x02, 0x40, 0xbb, 0xc3,
  0xa4, 0x23, 0x40, 0x60, 0xf8, 0x02, 0x7f, 0xcd, 0xeb, 0x4c, 0xc1, 0xff,
  0xb8, 0x19, 0x8b, 0xc4, 0xbc, 0x3a, 0x6d, 0x60, 0xd8, 0xaf, 0x3f, 0xec,
  0xef, 0x0e, 0xdd, 0x88, 0x00, 0x63, 0xae, 0xd2, 0xb0, 0xf8, 0x26, 0x7f,
  0xee, 0xd4, 0x45, 0xf4, 0xde, 0xee, 0xd2, 0xd5, 0x34, 0xfa, 0x3c, 0x3d,
  0x27, 0xf7, 0xfe, 0x0d, 0xbd, 0x2a, 0x2b, 0x43, 0x2b, 0xfd, 0x52, 0x7f,
  0x02, 0xec, 0x0f, 0x76, 0x17, 0xec, 0xff, 0xf2, 0xe2, 0x32, 0x14, 0x20,
  0xd4, 0xf9, 0x7f, 0x5b, 0x1f, 0xda, 0x59, 0x05, 0x1c, 0x17, 0x1e, 0x23,
  0xae, 0x74, 0x37, 0x2b, 0xeb, 0xf8, 0x1f, 0x7f, 0x00, 0xe4, 0x68, 0x67,
  0x2f, 0x26, 0xf8, 0x1d, 0xaf, 0x4c, 0xe6, 0x1a, 0x0e, 0x08, 0x0e, 0x3e,
  0xbd, 0x6c, 0xd6, 0xa8, 0xa2, 0x21, 0x54, 0x47, 0xfc, 0xb0, 0xfa, 0x03,
  0xf8, 0x1a, 0x92, 0xd5, 0xff, 0x3e, 0xe2, 0xab, 0x0c, 0x4a, 0x10, 0x5d,
  0xe3, 0xd6, 0x40, 0xdf, 0xec, 0x30, 0xbd, 0x81, 0x36, 0xc1, 0x1d, 0x34,
  0x7f, 0xde, 0xd8, 0xd1, 0x17, 0x50, 0xd6, 0x12, 0x26, 0xfa, 0x46, 0x37,
  0xef, 0xf0, 0x38, 0x1f, 0x79, 0xd4, 0xe4, 0xd6, 0x21, 0x51, 0xec, 0x6b,
  0x49, 0xf1, 0x1f, 0x67, 0x34, 0x8e, 0x3b, 0x19, 0x7a, 0xcb, 0xc7, 0xb6,
  0x41, 0x09, 0xc2, 0x62, 0x0e, 0x12, 0x42, 0x54, 0x36, 0xbc, 0x2b, 0x63,
  0x7f, 0xf3, 0xc0, 0xb6, 0x04, 0x34, 0x99, 0x5f, 0x53, 0xd1, 0x59, 0x38,
  0x34, 0xae, 0x44, 0x3b, 0x70, 0xcf, 0xd8, 0xe6, 0x22, 0x20, 0xc3, 0x36,
  0x0a, 0xe3, 0x6d, 0x18, 0x0d, 0xbb, 0x0d, 0x43, 0x7f, 0xe2, 0xcf, 0xe8,
  0xf6, 0x0b, 0xd0, 0x18, 0x3a, 0xdb, 0x48, 0x05, 0xd5, 0x26, 0xc1, 0xb1,
  0x93, 0x67, 0x48, 0x3e, 0xd8, 0xcf, 0x7f, 0xc1, 0xee, 0x29, 0xca, 0x93,
  0xd4, 0x3a, 0x04, 0xe0, 0xb2, 0x48, 0x59, 0x29, 0x01, 0xe2, 0x76, 0xd4,
  0xb5, 0x21, 0x9d, 0xe0, 0xdd, 0x2a, 0xa9, 0xb7, 0xa4, 0x59, 0x4f, 0x7f,
  0xe5, 0xbb, 0x2a, 0xb8, 0x00, 0x1a, 0xe3, 0x8e, 0xf8, 0x5a, 0xca, 0xed,
  0xba, 0x15, 0x2d, 0x2f, 0xc4, 0x8d, 0x5f, 0xde, 0xf6, 0x0d, 0xb0, 0xc2,
  0x22, 0x06, 0x3f, 0x19, 0x14, 0x01, 0x02, 0x19, 0xb4, 0x53, 0x3b, 0x25,
  0x1e, 0x1c, 0x0b, 0x55, 0xf2, 0xda, 0x7b, 0x2d, 0x3f, 0xf4, 0xd5, 0x28,
  0xb2, 0x7f, 0x2a, 0x1e, 0xd4, 0xd5, 0x36, 0x61, 0xc6, 0x0a, 0xf2, 0xc7,
  0xb6, 0x3e, 0x5d, 0x19, 0xc7, 0xaf, 0x36, 0xdd, 0x0d, 0xf8, 0xfb, 0xbc,
  0xce, 0x6f, 0x95, 0x07, 0xae, 0x50, 0x55, 0x4e, 0xc6, 0x81, 0x2d, 0xdb,
  0xdd, 0x50, 0xb4, 0xcf, 0xeb, 0x78, 0xd7, 0xcf, 0xaa, 0x2a, 0x3c, 0x5d,
  0xf7, 0xe1, 0x27, 0xd4, 0xdc, 0x1e, 0xe5, 0xd9, 0xf4, 0x2f, 0xb3, 0xab,
  0xd1, 0x51, 0x37, 0x49, 0x05, 0xac, 0x55, 0xc6, 0xda, 0x27, 0x89, 0x81,
  0xd0, 0x30, 0xc8, 0x9f, 0xa3, 0x4f, 0x65, 0x5b, 0xf3, 0xa8, 0x2b, 0xcd,
  0xd7, 0x4d, 0x9d, 0xc8, 0xf0, 0x40, 0xc3, 0xb9, 0xb3, 0x39, 0x66, 0x3f,
  0xe6, 0xda, 0x4e, 0x99, 0xd6, 0x32, 0xbd, 0x81, 0xe5, 0x4d, 0xba, 0x85,
  0xad, 0x71, 0x35, 0x6d, 0xdd, 0x81, 0x63, 0xb9, 0xc8, 0x4c, 0xab, 0xe0,
  0xdc, 0x32, 0x92, 0x8d, 0x00, 0x11, 0x51, 0x3e, 0xff, 0xd2, 0x48, 0x8b,
  0xd8, 0x25, 0xbc, 0xc5, 0xfe, 0x0f, 0x9c, 0xac, 0xb7, 0x5f, 0x36, 0x34,
  0xf2, 0xac, 0x4e, 0xbe, 0xde, 0x2c, 0x89, 0x95, 0xf5, 0x44, 0x90, 0xf3,
  0xb4, 0x29, 0x3a, 0x63, 0xbd, 0xa4, 0x7f, 0xd6, 0xe3, 0x33, 0xb2, 0xa4,
  0x38, 0xa4, 0x25, 0x5c, 0x7a, 0xd8, 0xc5, 0x8f, 0x18, 0x23, 0xe1, 0x3a,
  0x56, 0xcc, 0x2f, 0x6a, 0xfc, 0xae, 0x0c, 0x33, 0x7f, 0xb5, 0xaa, 0xf4,
  0x46, 0x2b, 0xcc, 0x3a, 0x18, 0xef, 0x77, 0x35, 0xec, 0xdb, 0x11, 0x7f,
  0xeb, 0x07, 0x00, 0x19, 0x82, 0x5a, 0x38, 0x23, 0xe7, 0xd1, 0x1a, 0x45,
  0x1d, 0x0b, 0x54, 0x3b, 0x34, 0x12, 0xfa, 0xf4, 0xd8, 0x2a, 0x19, 0x4b,
  0x0c, 0xec, 0x34, 0x4d, 0xd2, 0x35, 0xac, 0xc7, 0xb6, 0x54, 0x2b, 0x7f,
  0xd7, 0xd2, 0x65, 0xcb, 0xe7, 0x2f, 0xa3, 0xb1, 0xf3, 0x2d, 0xd7, 0xac,
  0xb8, 0x49, 0x4b, 0x3b, 0x02, 0xc6, 0x4b, 0xc4, 0xc9, 0x30, 0xaf, 0x9c,
  0x36, 0xd5, 0xf1, 0x55, 0x5c, 0xd9, 0xd6, 0xa2, 0x4c, 0xdc, 0xa5, 0xe6,
  0x14, 0xc6, 0x51, 0x07, 0x07, 0xe6, 0x17, 0x4a, 0x72, 0xb2, 0xd0, 0xc8,
  0x3d, 0xde, 0x81, 0xeb, 0x4d, 0x04, 0x08, 0xef, 0xcd, 0x37, 0xde, 0xf8,
  0x95, 0x37, 0x71, 0x37, 0xf6, 0xbe, 0x43, 0xbc, 0xd7, 0xf2, 0x81, 0x96,
  0x16, 0x51, 0xa7, 0xd1, 0xc0, 0x41, 0x50, 0x39, 0xd9, 0xa4, 0x79, 0xa8,
  0xe9, 0x47, 0xcb, 0x82, 0x0e, 0x0b, 0x3e, 0x7d, 0xfb, 0xec, 0x94, 0x13,
  0x00, 0x20, 0xf0, 0x1d, 0x0f, 0xac, 0x43, 0xf4, 0x40, 0x1d, 0x4a, 0x02,
  0x57, 0xe4, 0xe1, 0xdd, 0x29, 0x4d, 0xe5, 0x0c, 0xf1, 0x17, 0x7f, 0x3d,
  0xef, 0x4c, 0xab, 0xdf, 0xcd, 0x30, 0x4a, 0x63, 0xef, 0xb0, 0x4e, 0xea,
  0xf0, 0x14, 0xc2, 0xa1, 0xd8, 0x48, 0xbc, 0xd3, 0xd5, 0x0f, 0x4a, 0x2c,
  0xdf, 0x81, 0x46, 0x9f, 0xf5, 0x19, 0xc8, 0x8a, 0xcc, 0x4a, 0x83, 0xe5,
  0xd6, 0x3c, 0x35, 0x7c, 0xdf, 0xb4, 0x57, 0x04, 0xf0, 0x2b, 0x9b, 0x81,
  0xe3, 0x22, 0xe1, 0xcb, 0xdc, 0x2b, 0x37, 0x20, 0xe0, 0xae, 0x24, 0xaf,
  0x0c, 0x30, 0xe5, 0xd4, 0x14, 0xcf, 0x23, 0x7f, 0x51, 0xf3, 0xd9, 0xde,
  0x2b, 0x74, 0xbc, 0x32, 0x37, 0xe6, 0x47, 0x48, 0x0a, 0xdb, 0x25, 0x28,
  0x5d, 0x0e, 0xd0, 0xf0, 0x30, 0x6b, 0xdc, 0x45, 0x3b, 0xd2, 0x29, 0x36,
  0xd8, 0x43, 0xb2, 0xc3, 0xc7, 0x52, 0x5a, 0x7f, 0xf9, 0xc8, 0x62, 0xd8,
  0xd6, 0x31, 0xe0, 0x8f, 0x12, 0x16, 0xb2, 0x08, 0xd3, 0x14, 0x13, 0x13,
  0xf2, 0xee, 0x43, 0xcf, 0x01, 0x06, 0xc2, 0x9b, 0x1a, 0xac, 0x38, 0x4d,
  0x7f, 0xca, 0xed, 0xcd, 0x10, 0x1d, 0xb2, 0x43, 0x38, 0xd0, 0x21, 0x42,
  0x22, 0xbc, 0x40, 0x0f, 0x62, 0xf5, 0xf6, 0xf2, 0x2f, 0x1d, 0xaf, 0x34,
  0x23, 0xc2, 0x37, 0x29, 0xe7, 0x5e, 0xe0, 0xd0, 0xb2, 0x39, 0x59, 0x7f,
  0x0b, 0xb4, 0x33, 0xcb, 0xde, 0x2f, 0x92, 0x82, 0xf8, 0x45, 0xa1, 0xca,
  0xd9, 0x02, 0x3a, 0x29, 0xf4, 0xcb, 0x66, 0xe1, 0xc8, 0x39, 0xd6, 0x82,
  0x2d, 0xaa, 0x56, 0x2f, 0x7f, 0xd1, 0xce, 0xe6, 0x2c, 0x3b, 0xd2, 0x4a,
  0x16, 0xcb, 0x5a, 0x6d, 0x1a, 0xcc, 0x3f, 0x26, 0x30, 0xd1, 0xf5, 0xba,
  0x40, 0x2b, 0xee, 0x4e, 0x3b, 0xe9, 0x28, 0x62, 0x2f, 0xcc, 0x1a, 0x48,
  0x7f, 0xd2, 0xe3, 0xba, 0x0b, 0x2e, 0xf5, 0x2e, 0x3c, 0xf6, 0x36, 0x02,
  0x2d, 0xda, 0x1b, 0x55, 0x5f, 0xfc, 0xd4, 0xda, 0x43, 0x4d, 0xe8, 0x47,
  0xfa, 0xe9, 0x37, 0x4e, 0x33, 0xe2, 0x51, 0x1a, 0x37, 0x2f, 0xcb, 0x28,
  0x0e, 0x6b, 0xf4, 0x54, 0x1a, 0xc9, 0x0e, 0x49, 0x2b, 0xff, 0x21, 0x45,
  0x7f, 0x09, 0xf8, 0xf6, 0x26, 0x50, 0x07, 0x2c, 0xe2, 0xd9, 0x7e, 0x53,
  0xcb, 0x5d, 0xe2, 0xde, 0x96, 0x21, 0x1f, 0x38, 0x0b, 0xd8, 0x10, 0xe9,
  0xcf, 0x05, 0x81, 0xde, 0x88, 0x43, 0xc6, 0xb8, 0x98, 0x52, 0x4a, 0x6b,
  0xdb, 0xf7, 0x50, 0xdc, 0xee, 0x3d, 0xbd, 0x8c, 0xbe, 0x3b, 0xd8, 0x93,
  0xc4, 0x66, 0x56, 0x4c, 0xcc, 0x9b, 0x56, 0x05, 0xd0, 0x14, 0x81, 0xde,
  0x10, 0x40, 0xc2, 0xcb, 0xe6, 0x01, 0x3b, 0x6c, 0xe7, 0x84, 0x51, 0xb9,
  0xf9, 0x3e, 0xab, 0x95, 0xd5, 0x63, 0x9d, 0x87, 0xac, 0x40, 0x32, 0x60,
  0xf2, 0xb0, 0x63, 0xed, 0xf2, 0x0f, 0xac, 0x81, 0x01, 0x40, 0xa0, 0xf8,
  0xd7, 0x2c, 0x3a, 0x2d, 0xe4, 0xef, 0x53, 0xb2, 0xee, 0x26, 0xdb, 0x97,
  0x42, 0xfe, 0xff, 0xff, 0x04, 0x00, 0x00, 0x00, 0x00, 0x01, 0x00, 0x00,
  0xaa, 0x01, 0x00, 0x00, 0x6d, 0xf4, 0xff, 0xff, 0x47, 0x01, 0x00, 0x00,
  0x17, 0x00, 0x00, 0x00, 0x54, 0x00, 0x00, 0x00, 0x7a, 0xff, 0xff, 0xff,
  0x0a, 0x01, 0x00, 0x00, 0x69, 0xff, 0xff, 0xff, 0xcb, 0x02, 0x00, 0x00,
  0x06, 0x00, 0x00, 0x00, 0xb7, 0x00, 0x00, 0x00, 0x53, 0x00, 0x00, 0x00,
  0x0c, 0x02, 0x00, 0x00, 0x46, 0x02, 0x00, 0x00, 0x3c, 0xfe, 0xff, 0xff,
  0xf7, 0xfe, 0xff, 0xff, 0x29, 0xff, 0xff, 0xff, 0xdb, 0xff, 0xff, 0xff,
  0x39, 0x07, 0x00, 0x00, 0xae, 0x01, 0x00, 0x00, 0x3a, 0xff, 0xff, 0xff,
  0x67, 0x02, 0x00, 0x00, 0xe2, 0x00, 0x00, 0x00, 0xe5, 0xf2, 0xff, 0xff,
  0x30, 0x01, 0x00, 0x00, 0xf7, 0xfe, 0xff, 0xff, 0x28, 0x00, 0x00, 0x00,
  0x5c, 0x01, 0x00, 0x00, 0xd2, 0xed, 0xff, 0xff, 0x53, 0x01, 0x00, 0x00,
  0x2e, 0xfd, 0xff, 0xff, 0x43, 0x00, 0x00, 0x00, 0x7f, 0xef, 0xff, 0xff,
  0xc0, 0xf2, 0xff, 0xff, 0x3f, 0xff, 0xff, 0xff, 0xb7, 0x00, 0x00, 0x00,
  0xe2, 0x01, 0x00, 0x00, 0x75, 0x01, 0x00, 0x00, 0x8b, 0x00, 0x00, 0x00,
  0xf0, 0xfe, 0xff, 0xff, 0x1e, 0xf5, 0xff, 0xff, 0x8d, 0x01, 0x00, 0x00,
  0x98, 0xff, 0xff, 0xff, 0x8a, 0x00, 0x00, 0x00, 0x31, 0xff, 0xff, 0xff,
  0xe4, 0xfe, 0xff, 0xff, 0x57, 0x02, 0x00, 0x00, 0xf6, 0xf0, 0xff, 0xff,
  0x73, 0xff, 0xff, 0xff, 0x3d, 0x03, 0x00, 0x00, 0x01, 0x00, 0x00, 0x00,
  0x45, 0x00, 0x00, 0x00, 0xf0, 0xff, 0xff, 0xff, 0x36, 0x00, 0x00, 0x00,
  0xbd, 0x00, 0x00, 0x00, 0x14, 0xfe, 0xff, 0xff, 0x24, 0x01, 0x00, 0x00,
  0xc9, 0xfe, 0xff, 0xff, 0x5d, 0x01, 0x00, 0x00, 0xed, 0xff, 0xff, 0xff,
  0xad, 0xfe, 0xff, 0xff, 0x00, 0x01, 0x00, 0x00, 0x5a, 0xff, 0xff, 0xff,
  0x7c, 0xff, 0xff, 0xff, 0x4e, 0xff, 0xff, 0xff, 0x04, 0x00, 0x00, 0x00,
  0x40, 0x00, 0x00, 0x00, 0x52, 0x28, 0x5a, 0xca, 0x4c, 0xc8, 0x43, 0xae,
  0x39, 0xac, 0x4f, 0xaf, 0x42, 0x47, 0xb1, 0xb1, 0x95, 0x98, 0x1f, 0xa1,
  0x96, 0x44, 0x49, 0x22, 0xaf, 0xbf, 0xb2, 0x4b, 0x24, 0xc0, 0xc7, 0x9d,
  0x1f, 0x20, 0xad, 0x51, 0x52, 0x58, 0xb1, 0xac, 0x29, 0xa8, 0xbc, 0x99,
  0xa3, 0xa1, 0x4e, 0x3f, 0x9b, 0x4f, 0x81, 0x3f, 0xa6, 0x93, 0x49, 0x9f,
  0x57, 0x9a, 0x47, 0x52, 0x40, 0xb5, 0xb8, 0x85, 0x9a, 0xff, 0xff, 0xff,
  0x04, 0x00, 0x00, 0x00, 0x04, 0x00, 0x00, 0x00, 0x64, 0x02, 0x00, 0x00,
  0xaa, 0xff, 0xff, 0xff, 0x04, 0x00, 0x00, 0x00, 0x08, 0x00, 0x00, 0x00,
  0xff, 0xff, 0xff, 0xff, 0x20, 0x00, 0x00, 0x00, 0xbe, 0xff, 0xff, 0xff,
  0x04, 0x00, 0x00, 0x00, 0x04, 0x00, 0x00, 0x00, 0x01, 0x00, 0x00, 0x00,
  0xce, 0xff, 0xff, 0xff, 0x04, 0x00, 0x00, 0x00, 0x0c, 0x00, 0x00, 0x00,
  0xff, 0xff, 0xff, 0xff, 0x05, 0x00, 0x00, 0x00, 0x10, 0x00, 0x00, 0x00,
  0xe6, 0xff, 0xff, 0xff, 0x04, 0x00, 0x00, 0x00, 0x0c, 0x00, 0x00, 0x00,
  0xff, 0xff, 0xff, 0xff, 0x05, 0x00, 0x00, 0x00, 0x20, 0x00, 0x00, 0x00,
  0x00, 0x00, 0x06, 0x00, 0x08, 0x00, 0x04, 0x00, 0x06, 0x00, 0x00, 0x00,
  0x04, 0x00, 0x00, 0x00, 0x04, 0x00, 0x00, 0x00, 0xfd, 0xff, 0xff, 0xff,
  0xb4, 0xe5, 0xff, 0xff, 0xb8, 0xe5, 0xff, 0xff, 0x0f, 0x00, 0x00, 0x00,
  0x4d, 0x4c, 0x49, 0x52, 0x20, 0x43, 0x6f, 0x6e, 0x76, 0x65, 0x72, 0x74,
  0x65, 0x64, 0x2e, 0x00, 0x01, 0x00, 0x00, 0x00, 0x14, 0x00, 0x00, 0x00,
  0x00, 0x00, 0x0e, 0x00, 0x18, 0x00, 0x14, 0x00, 0x10, 0x00, 0x0c, 0x00,
  0x08, 0x00, 0x04, 0x00, 0x0e, 0x00, 0x00, 0x00, 0x14, 0x00, 0x00, 0x00,
  0x1c, 0x00, 0x00, 0x00, 0xd8, 0x02, 0x00, 0x00, 0xdc, 0x02, 0x00, 0x00,
  0xe0, 0x02, 0x00, 0x00, 0x04, 0x00, 0x00, 0x00, 0x6d, 0x61, 0x69, 0x6e,
  0x00, 0x00, 0x00, 0x00, 0x0c, 0x00, 0x00, 0x00, 0x90, 0x02, 0x00, 0x00,
  0x30, 0x02, 0x00, 0x00, 0xf8, 0x01, 0x00, 0x00, 0xbc, 0x01, 0x00, 0x00,
  0x78, 0x01, 0x00, 0x00, 0x50, 0x01, 0x00, 0x00, 0x20, 0x01, 0x00, 0x00,
  0xcc, 0x00, 0x00, 0x00, 0xa4, 0x00, 0x00, 0x00, 0x60, 0x00, 0x00, 0x00,
  0x28, 0x00, 0x00, 0x00, 0x04, 0x00, 0x00, 0x00, 0x3a, 0xfe, 0xff, 0xff,
  0x0c, 0x00, 0x00, 0x00, 0x10, 0x00, 0x00, 0x00, 0x05, 0x00, 0x00, 0x00,
  0x01, 0x00, 0x00, 0x00, 0x19, 0x00, 0x00, 0x00, 0x01, 0x00, 0x00, 0x00,
  0x18, 0x00, 0x00, 0x00, 0x2a, 0xfe, 0xff, 0xff, 0x14, 0x00, 0x00, 0x00,
  0x00, 0x00, 0x00, 0x08, 0x10, 0x00, 0x00, 0x00, 0x14, 0x00, 0x00, 0x00,
  0x04, 0x00, 0x00, 0x00, 0x78, 0xe6, 0xff, 0xff, 0x01, 0x00, 0x00, 0x00,
  0x18, 0x00, 0x00, 0x00, 0x03, 0x00, 0x00, 0x00, 0x17, 0x00, 0x00, 0x00,
  0x07, 0x00, 0x00, 0x00, 0x06, 0x00, 0x00, 0x00, 0x5e, 0xfe, 0xff, 0xff,
  0x1c, 0x00, 0x00, 0x00, 0x00, 0x00, 0x00, 0x08, 0x1c, 0x00, 0x00, 0x00,
  0x20, 0x00, 0x00, 0x00, 0x04, 0x00, 0x00, 0x00, 0x00, 0x00, 0x06, 0x00,
  0x08, 0x00, 0x07, 0x00, 0x06, 0x00, 0x00, 0x00, 0x00, 0x00, 0x00, 0x01,
  0x01, 0x00, 0x00, 0x00, 0x17, 0x00, 0x00, 0x00, 0x03, 0x00, 0x00, 0x00,
  0x16, 0x00, 0x00, 0x00, 0x09, 0x00, 0x00, 0x00, 0x08, 0x00, 0x00, 0x00,
  0xce, 0xfe, 0xff, 0xff, 0x0c, 0x00, 0x00, 0x00, 0x10, 0x00, 0x00, 0x00,
  0x02, 0x00, 0x00, 0x00, 0x01, 0x00, 0x00, 0x00, 0x16, 0x00, 0x00, 0x00,
  0x02, 0x00, 0x00, 0x00, 0x15, 0x00, 0x00, 0x00, 0x05, 0x00, 0x00, 0x00,
  0xc2, 0xfe, 0xff, 0xff, 0x24, 0x00, 0x00, 0x00, 0x00, 0x00, 0x00, 0x05,
  0x34, 0x00, 0x00, 0x00, 0x38, 0x00, 0x00, 0x00, 0x03, 0x00, 0x00, 0x00,
  0x00, 0x00, 0x0e, 0x00, 0x18, 0x00, 0x17, 0x00, 0x10, 0x00, 0x0c, 0x00,
  0x08, 0x00, 0x04, 0x00, 0x0e, 0x00, 0x00, 0x00, 0x01, 0x00, 0x00, 0x00,
  0x02, 0x00, 0x00, 0x00, 0x01, 0x00, 0x00, 0x00, 0x02, 0x00, 0x00, 0x00,
  0x00, 0x00, 0x00, 0x01, 0x01, 0x00, 0x00, 0x00, 0x15, 0x00, 0x00, 0x00,
  0x01, 0x00, 0x00, 0x00, 0x14, 0x00, 0x00, 0x00, 0xb6, 0xfe, 0xff, 0xff,
  0x10, 0x00, 0x00, 0x00, 0x00, 0x00, 0x00, 0x34, 0x0c, 0x00, 0x00, 0x00,
  0x10, 0x00, 0x00, 0x00, 0x5c, 0xe7, 0xff, 0xff, 0x01, 0x00, 0x00, 0x00,
  0x14, 0x00, 0x00, 0x00, 0x02, 0x00, 0x00, 0x00, 0x13, 0x00, 0x00, 0x00,
  0x04, 0x00, 0x00, 0x00, 0x6e, 0xff, 0xff, 0xff, 0x0c, 0x00, 0x00, 0x00,
  0x10, 0x00, 0x00, 0x00, 0x02, 0x00, 0x00, 0x00, 0x01, 0x00, 0x00, 0x00,
  0x13, 0x00, 0x00, 0x00, 0x02, 0x00, 0x00, 0x00, 0x12, 0x00, 0x00, 0x00,
  0x03, 0x00, 0x00, 0x00, 0x62, 0xff, 0xff, 0xff, 0x14, 0x00, 0x00, 0x00,
  0x00, 0x00, 0x00, 0x01, 0x1c, 0x00, 0x00, 0x00, 0x20, 0x00, 0x00, 0x00,
  0x01, 0x00, 0x00, 0x00, 0x54, 0xff, 0xff, 0xff, 0x00, 0x00, 0x00, 0x01,
  0x01, 0x00, 0x00, 0x00, 0x01, 0x00, 0x00, 0x00, 0x01, 0x00, 0x00, 0x00,
  0x12, 0x00, 0x00, 0x00, 0x03, 0x00, 0x00, 0x00, 0x11, 0x00, 0x00, 0x00,
  0x0b, 0x00, 0x00, 0x00, 0x0a, 0x00, 0x00, 0x00, 0x46, 0xff, 0xff, 0xff,
  0x10, 0x00, 0x00, 0x00, 0x00, 0x00, 0x00, 0x34, 0x0c, 0x00, 0x00, 0x00,
  0x10, 0x00, 0x00, 0x00, 0xec, 0xe7, 0xff, 0xff, 0x01, 0x00, 0x00, 0x00,
  0x11, 0x00, 0x00, 0x00, 0x02, 0x00, 0x00, 0x00, 0x10, 0x00, 0x00, 0x00,
  0x01, 0x00, 0x00, 0x00, 0x00, 0x00, 0x0a, 0x00, 0x10, 0x00, 0x0c, 0x00,
  0x08, 0x00, 0x04, 0x00, 0x0a, 0x00, 0x00, 0x00, 0x0c, 0x00, 0x00, 0x00,
  0x10, 0x00, 0x00, 0x00, 0x02, 0x00, 0x00, 0x00, 0x01, 0x00, 0x00, 0x00,
  0x10, 0x00, 0x00, 0x00, 0x02, 0x00, 0x00, 0x00, 0x0f, 0x00, 0x00, 0x00,
  0x02, 0x00, 0x00, 0x00, 0x00, 0x00, 0x0e, 0x00, 0x18, 0x00, 0x14, 0x00,
  0x10, 0x00, 0x0c, 0x00, 0x0b, 0x00, 0x04, 0x00, 0x0e, 0x00, 0x00, 0x00,
  0x20, 0x00, 0x00, 0x00, 0x00, 0x00, 0x00, 0x01, 0x28, 0x00, 0x00, 0x00,
  0x2c, 0x00, 0x00, 0x00, 0x01, 0x00, 0x00, 0x00, 0x0c, 0x00, 0x10, 0x00,
  0x00, 0x00, 0x0c, 0x00, 0x08, 0x00, 0x07, 0x00, 0x0c, 0x00, 0x00, 0x00,
  0x00, 0x00, 0x00, 0x01, 0x01, 0x00, 0x00, 0x00, 0x01, 0x00, 0x00, 0x00,
  0x01, 0x00, 0x00, 0x00, 0x0f, 0x00, 0x00, 0x00, 0x03, 0x00, 0x00, 0x00,
  0x0e, 0x00, 0x00, 0x00, 0x0d, 0x00, 0x00, 0x00, 0x0c, 0x00, 0x00, 0x00,
  0x00, 0x00, 0x0e, 0x00, 0x14, 0x00, 0x00, 0x00, 0x10, 0x00, 0x0c, 0x00,
  0x0b, 0x00, 0x04, 0x00, 0x0e, 0x00, 0x00, 0x00, 0x10, 0x00, 0x00, 0x00,
  0x00, 0x00, 0x00, 0x34, 0x0c, 0x00, 0x00, 0x00, 0x10, 0x00, 0x00, 0x00,
  0xb4, 0xe8, 0xff, 0xff, 0x01, 0x00, 0x00, 0x00, 0x0e, 0x00, 0x00, 0x00,
  0x02, 0x00, 0x00, 0x00, 0x00, 0x00, 0x00, 0x00, 0x01, 0x00, 0x00, 0x00,
  0x01, 0x00, 0x00, 0x00, 0x19, 0x00, 0x00, 0x00, 0x01, 0x00, 0x00, 0x00,
  0x00, 0x00, 0x00, 0x00, 0x1a, 0x00, 0x00, 0x00, 0x58, 0x17, 0x00, 0x00,
  0x00, 0x17, 0x00, 0x00, 0xa8, 0x16, 0x00, 0x00, 0x68, 0x16, 0x00, 0x00,
  0x2c, 0x16, 0x00, 0x00, 0xec, 0x15, 0x00, 0x00, 0x88, 0x15, 0x00, 0x00,
  0x24, 0x15, 0x00, 0x00, 0xd0, 0x11, 0x00, 0x00, 0x74, 0x0e, 0x00, 0x00,
  0x60, 0x0d, 0x00, 0x00, 0x3c, 0x0c, 0x00, 0x00, 0x68, 0x0a, 0x00, 0x00,
  0x84, 0x08, 0x00, 0x00, 0xe0, 0x07, 0x00, 0x00, 0xe4, 0x06, 0x00, 0x00,
  0x14, 0x06, 0x00, 0x00, 0x74, 0x05, 0x00, 0x00, 0x70, 0x04, 0x00, 0x00,
  0x98, 0x03, 0x00, 0x00, 0xf0, 0x02, 0x00, 0x00, 0x54, 0x02, 0x00, 0x00,
  0xd0, 0x01, 0x00, 0x00, 0x1c, 0x01, 0x00, 0x00, 0x80, 0x00, 0x00, 0x00,
  0x04, 0x00, 0x00, 0x00, 0x26, 0xe9, 0xff, 0xff, 0x00, 0x00, 0x00, 0x01,
  0x18, 0x00, 0x00, 0x00, 0x20, 0x00, 0x00, 0x00, 0x3c, 0x00, 0x00, 0x00,
  0x1a, 0x00, 0x00, 0x00, 0x00, 0x00, 0x00, 0x09, 0x50, 0x00, 0x00, 0x00,
  0x02, 0x00, 0x00, 0x00, 0xff, 0xff, 0xff, 0xff, 0x01, 0x00, 0x00, 0x00,
  0x0c, 0xe9, 0xff, 0xff, 0x08, 0x00, 0x00, 0x00, 0x10, 0x00, 0x00, 0x00,
  0x01, 0x00, 0x00, 0x00, 0x80, 0xff, 0xff, 0xff, 0xff, 0xff, 0xff, 0xff,
  0x01, 0x00, 0x00, 0x00, 0x00, 0x00, 0x80, 0x3b, 0x1b, 0x00, 0x00, 0x00,
  0x53, 0x74, 0x61, 0x74, 0x65, 0x66, 0x75, 0x6c, 0x50, 0x61, 0x72, 0x74,
  0x69, 0x74, 0x69, 0x6f, 0x6e, 0x65, 0x64, 0x43, 0x61, 0x6c, 0x6c, 0x5f,
  0x31, 0x3a, 0x30, 0x00, 0x02, 0x00, 0x00, 0x00, 0x01, 0x00, 0x00, 0x00,
  0x01, 0x00, 0x00, 0x00, 0x9e, 0xe9, 0xff, 0xff, 0x00, 0x00, 0x00, 0x01,
  0x18, 0x00, 0x00, 0x00, 0x20, 0x00, 0x00, 0x00, 0x3c, 0x00, 0x00, 0x00,
  0x19, 0x00, 0x00, 0x00, 0x00, 0x00, 0x00, 0x09, 0x70, 0x00, 0x00, 0x00,
  0x02, 0x00, 0x00, 0x00, 0xff, 0xff, 0xff, 0xff, 0x01, 0x00, 0x00, 0x00,
  0x84, 0xe9, 0xff, 0xff, 0x08, 0x00, 0x00, 0x00, 0x10, 0x00, 0x00, 0x00,
  0x01, 0x00, 0x00, 0x00, 0xb6, 0xff, 0xff, 0xff, 0xff, 0xff, 0xff, 0xff,
  0x01, 0x00, 0x00, 0x00, 0x69, 0xf9, 0x1d, 0x3f, 0x38, 0x00, 0x00, 0x00,
  0x73, 0x65, 0x71, 0x75, 0x65, 0x6e, 0x74, 0x69, 0x61, 0x6c, 0x5f, 0x31,
  0x2f, 0x64, 0x65, 0x6e, 0x73, 0x65, 0x5f, 0x31, 0x5f, 0x32, 0x2f, 0x4d,
  0x61, 0x74, 0x4d, 0x75, 0x6c, 0x3b, 0x73, 0x65, 0x71, 0x75, 0x65, 0x6e,
  0x74, 0x69, 0x61, 0x6c, 0x5f, 0x31, 0x2f, 0x64, 0x65, 0x6e, 0x73, 0x65,
  0x5f, 0x31, 0x5f, 0x32, 0x2f, 0x41, 0x64, 0x64, 0x00, 0x00, 0x00, 0x00,
  0x02, 0x00, 0x00, 0x00, 0x01, 0x00, 0x00, 0x00, 0x01, 0x00, 0x00, 0x00,
  0x36, 0xea, 0xff, 0xff, 0x00, 0x00, 0x00, 0x01, 0x18, 0x00, 0x00, 0x00,
  0x20, 0x00, 0x00, 0x00, 0x3c, 0x00, 0x00, 0x00, 0x18, 0x00, 0x00, 0x00,
  0x00, 0x00, 0x00, 0x09, 0x88, 0x00, 0x00, 0x00, 0x02, 0x00, 0x00, 0x00,
  0xff, 0xff, 0xff, 0xff, 0x40, 0x00, 0x00, 0x00, 0x1c, 0xea, 0xff, 0xff,
  0x08, 0x00, 0x00, 0x00, 0x10, 0x00, 0x00, 0x00, 0x01, 0x00, 0x00, 0x00,
  0x80, 0xff, 0xff, 0xff, 0xff, 0xff, 0xff, 0xff, 0x01, 0x00, 0x00, 0x00,
  0xd1, 0xf3, 0x69, 0x3d, 0x52, 0x00, 0x00, 0x00, 0x73, 0x65, 0x71, 0x75,
  0x65, 0x6e, 0x74, 0x69, 0x61, 0x6c, 0x5f, 0x31, 0x2f, 0x64, 0x65, 0x6e,
  0x73, 0x65, 0x5f, 0x31, 0x2f, 0x4d, 0x61, 0x74, 0x4d, 0x75, 0x6c, 0x3b,
  0x73, 0x65, 0x71, 0x75, 0x65, 0x6e, 0x74, 0x69, 0x61, 0x6c, 0x5f, 0x31,
  0x2f, 0x64, 0x65, 0x6e, 0x73, 0x65, 0x5f, 0x31, 0x2f, 0x52, 0x65, 0x6c,
  0x75, 0x3b, 0x73, 0x65, 0x71, 0x75, 0x65, 0x6e, 0x74, 0x69, 0x61, 0x6c,
  0x5f, 0x31, 0x2f, 0x64, 0x65, 0x6e, 0x73, 0x65, 0x5f, 0x31, 0x2f, 0x42,
  0x69, 0x61, 0x73, 0x41, 0x64, 0x64, 0x00, 0x00, 0x02, 0x00, 0x00, 0x00,
  0x01, 0x00, 0x00, 0x00, 0x40, 0x00, 0x00, 0x00, 0xe6, 0xea, 0xff, 0xff,
  0x00, 0x00, 0x00, 0x01, 0x18, 0x00, 0x00, 0x00, 0x20, 0x00, 0x00, 0x00,
  0x40, 0x00, 0x00, 0x00, 0x17, 0x00, 0x00, 0x00, 0x00, 0x00, 0x00, 0x09,
  0x58, 0x00, 0x00, 0x00, 0x02, 0x00, 0x00, 0x00, 0xff, 0xff, 0xff, 0xff,
  0x20, 0x00, 0x00, 0x00, 0xcc, 0xea, 0xff, 0xff, 0x08, 0x00, 0x00, 0x00,
  0x14, 0x00, 0x00, 0x00, 0x01, 0x00, 0x00, 0x00, 0x80, 0xff, 0xff, 0xff,
  0xff, 0xff, 0xff, 0xff, 0x00, 0x00, 0x00, 0x00, 0x01, 0x00, 0x00, 0x00,
  0x94, 0x3f, 0xd4, 0x3c, 0x1e, 0x00, 0x00, 0x00, 0x73, 0x65, 0x71, 0x75,
  0x65, 0x6e, 0x74, 0x69, 0x61, 0x6c, 0x5f, 0x31, 0x2f, 0x66, 0x6c, 0x61,
  0x74, 0x74, 0x65, 0x6e, 0x5f, 0x31, 0x2f, 0x52, 0x65, 0x73, 0x68, 0x61,
  0x70, 0x65, 0x00, 0x00, 0x02, 0x00, 0x00, 0x00, 0x01, 0x00, 0x00, 0x00,
  0x20, 0x00, 0x00, 0x00, 0x66, 0xeb, 0xff, 0xff, 0x00, 0x00, 0x00, 0x01,
  0x18, 0x00, 0x00, 0x00, 0x28, 0x00, 0x00, 0x00, 0x48, 0x00, 0x00, 0x00,
  0x16, 0x00, 0x00, 0x00, 0x00, 0x00, 0x00, 0x09, 0x68, 0x00, 0x00, 0x00,
  0x04, 0x00, 0x00, 0x00, 0xff, 0xff, 0xff, 0xff, 0x01, 0x00, 0x00, 0x00,
  0x02, 0x00, 0x00, 0x00, 0x10, 0x00, 0x00, 0x00, 0x54, 0xeb, 0xff, 0xff,
  0x08, 0x00, 0x00, 0x00, 0x14, 0x00, 0x00, 0x00, 0x01, 0x00, 0x00, 0x00,
  0x80, 0xff, 0xff, 0xff, 0xff, 0xff, 0xff, 0xff, 0x00, 0x00, 0x00, 0x00,
  0x01, 0x00, 0x00, 0x00, 0x94, 0x3f, 0xd4, 0x3c, 0x26, 0x00, 0x00, 0x00,
  0x73, 0x65, 0x71, 0x75, 0x65, 0x6e, 0x74, 0x69, 0x61, 0x6c, 0x5f, 0x31,
  0x2f, 0x6d, 0x61, 0x78, 0x5f, 0x70, 0x6f, 0x6f, 0x6c, 0x69, 0x6e, 0x67,
  0x31, 0x64, 0x5f, 0x31, 0x2f, 0x4d, 0x61, 0x78, 0x50, 0x6f, 0x6f, 0x6c,
  0x31, 0x64, 0x00, 0x00, 0x04, 0x00, 0x00, 0x00, 0x01, 0x00, 0x00, 0x00,
  0x01, 0x00, 0x00, 0x00, 0x02, 0x00, 0x00, 0x00, 0x10, 0x00, 0x00, 0x00,
  0xfe, 0xeb, 0xff, 0xff, 0x00, 0x00, 0x00, 0x01, 0x18, 0x00, 0x00, 0x00,
  0x28, 0x00, 0x00, 0x00, 0x48, 0x00, 0x00, 0x00, 0x15, 0x00, 0x00, 0x00,
  0x00, 0x00, 0x00, 0x09, 0x74, 0x00, 0x00, 0x00, 0x04, 0x00, 0x00, 0x00,
  0xff, 0xff, 0xff, 0xff, 0x01, 0x00, 0x00, 0x00, 0x05, 0x00, 0x00, 0x00,
  0x10, 0x00, 0x00, 0x00, 0xec, 0xeb, 0xff, 0xff, 0x08, 0x00, 0x00, 0x00,
  0x14, 0x00, 0x00, 0x00, 0x01, 0x00, 0x00, 0x00, 0x80, 0xff, 0xff, 0xff,
  0xff, 0xff, 0xff, 0xff, 0x00, 0x00, 0x00, 0x00, 0x01, 0x00, 0x00, 0x00,
  0x94, 0x3f, 0xd4, 0x3c, 0x31, 0x00, 0x00, 0x00, 0x73, 0x65, 0x71, 0x75,
  0x65, 0x6e, 0x74, 0x69, 0x61, 0x6c, 0x5f, 0x31, 0x2f, 0x6d, 0x61, 0x78,
  0x5f, 0x70, 0x6f, 0x6f, 0x6c, 0x69, 0x6e, 0x67, 0x31, 0x64, 0x5f, 0x31,
  0x2f, 0x4d, 0x61, 0x78, 0x50, 0x6f, 0x6f, 0x6c, 0x31, 0x64, 0x2f, 0x45,
  0x78, 0x70, 0x61, 0x6e, 0x64, 0x44, 0x69, 0x6d, 0x73, 0x00, 0x00, 0x00,
  0x04, 0x00, 0x00, 0x00, 0x01, 0x00, 0x00, 0x00, 0x01, 0x00, 0x00, 0x00,
  0x05, 0x00, 0x00, 0x00, 0x10, 0x00, 0x00, 0x00, 0xa2, 0xec, 0xff, 0xff,
  0x00, 0x00, 0x00, 0x01, 0x18, 0x00, 0x00, 0x00, 0x24, 0x00, 0x00, 0x00,
  0x44, 0x00, 0x00, 0x00, 0x14, 0x00, 0x00, 0x00, 0x00, 0x00, 0x00, 0x09,
  0xa8, 0x00, 0x00, 0x00, 0x03, 0x00, 0x00, 0x00, 0xff, 0xff, 0xff, 0xff,
  0x05, 0x00, 0x00, 0x00, 0x10, 0x00, 0x00, 0x00, 0x8c, 0xec, 0xff, 0xff,
  0x08, 0x00, 0x00, 0x00, 0x14, 0x00, 0x00, 0x00, 0x01, 0x00, 0x00, 0x00,
  0x80, 0xff, 0xff, 0xff, 0xff, 0xff, 0xff, 0xff, 0x00, 0x00, 0x00, 0x00,
  0x01, 0x00, 0x00, 0x00, 0x94, 0x3f, 0xd4, 0x3c, 0x69, 0x00, 0x00, 0x00,
  0x73, 0x65, 0x71, 0x75, 0x65, 0x6e, 0x74, 0x69, 0x61, 0x6c, 0x5f, 0x31,
  0x2f, 0x63, 0x6f, 0x6e, 0x76, 0x31, 0x64, 0x5f, 0x31, 0x5f, 0x32, 0x2f,
  0x52, 0x65, 0x6c, 0x75, 0x3b, 0x73, 0x65, 0x71, 0x75, 0x65, 0x6e, 0x74,
  0x69, 0x61, 0x6c, 0x5f, 0x31, 0x2f, 0x63, 0x6f, 0x6e, 0x76, 0x31, 0x64,
  0x5f, 0x31, 0x5f, 0x32, 0x2f, 0x42, 0x69, 0x61, 0x73, 0x41, 0x64, 0x64,
  0x3b, 0x73, 0x65, 0x71, 0x75, 0x65, 0x6e, 0x74, 0x69, 0x61, 0x6c, 0x5f,
  0x31, 0x2f, 0x63, 0x6f, 0x6e, 0x76, 0x31, 0x64, 0x5f, 0x31, 0x5f, 0x32,
  0x2f, 0x63, 0x6f, 0x6e, 0x76, 0x6f, 0x6c, 0x75, 0x74, 0x69, 0x6f, 0x6e,
  0x2f, 0x53, 0x71, 0x75, 0x65, 0x65, 0x7a, 0x65, 0x3b, 0x00, 0x00, 0x00,
  0x03, 0x00, 0x00, 0x00, 0x01, 0x00, 0x00, 0x00, 0x05, 0x00, 0x00, 0x00,
  0x10, 0x00, 0x00, 0x00, 0x76, 0xed, 0xff, 0xff, 0x00, 0x00, 0x00, 0x01,
  0x18, 0x00, 0x00, 0x00, 0x28, 0x00, 0x00, 0x00, 0x48, 0x00, 0x00, 0x00,
  0x13, 0x00, 0x00, 0x00, 0x00, 0x00, 0x00, 0x09, 0xd0, 0x00, 0x00, 0x00,
  0x04, 0x00, 0x00, 0x00, 0xff, 0xff, 0xff, 0xff, 0x01, 0x00, 0x00, 0x00,
  0x05, 0x00, 0x00, 0x00, 0x10, 0x00, 0x00, 0x00, 0x64, 0xed, 0xff, 0xff,
  0x08, 0x00, 0x00, 0x00, 0x14, 0x00, 0x00, 0x00, 0x01, 0x00, 0x00, 0x00,
  0x80, 0xff, 0xff, 0xff, 0xff, 0xff, 0xff, 0xff, 0x00, 0x00, 0x00, 0x00,
  0x01, 0x00, 0x00, 0x00, 0x94, 0x3f, 0xd4, 0x3c, 0x8d, 0x00, 0x00, 0x00,
  0x73, 0x65, 0x71, 0x75, 0x65, 0x6e, 0x74, 0x69, 0x61, 0x6c, 0x5f, 0x31,
  0x2f, 0x63, 0x6f, 0x6e, 0x76, 0x31, 0x64, 0x5f, 0x31, 0x5f, 0x32, 0x2f,
  0x52, 0x65, 0x6c, 0x75, 0x3b, 0x73, 0x65, 0x71, 0x75, 0x65, 0x6e, 0x74,
  0x69, 0x61, 0x6c, 0x5f, 0x31, 0x2f, 0x63, 0x6f, 0x6e, 0x76, 0x31, 0x64,
  0x5f, 0x31, 0x5f, 0x32, 0x2f, 0x42, 0x69, 0x61, 0x73, 0x41, 0x64, 0x64,
  0x3b, 0x73, 0x65, 0x71, 0x75, 0x65, 0x6e, 0x74, 0x69, 0x61, 0x6c, 0x5f,
  0x31, 0x2f, 0x63, 0x6f, 0x6e, 0x76, 0x31, 0x64, 0x5f, 0x31, 0x5f, 0x32,
  0x2f, 0x63, 0x6f, 0x6e, 0x76, 0x6f, 0x6c, 0x75, 0x74, 0x69, 0x6f, 0x6e,
  0x2f, 0x53, 0x71, 0x75, 0x65, 0x65, 0x7a, 0x65, 0x3b, 0x3b, 0x73, 0x65,
  0x71, 0x75, 0x65, 0x6e, 0x74, 0x69, 0x61, 0x6c, 0x5f, 0x31, 0x2f, 0x63,
  0x6f, 0x6e, 0x76, 0x31, 0x64, 0x5f, 0x31, 0x5f, 0x32, 0x2f, 0x63, 0x6f,
  0x6e, 0x76, 0x6f, 0x6c, 0x75, 0x74, 0x69, 0x6f, 0x6e, 0x00, 0x00, 0x00,
  0x04, 0x00, 0x00, 0x00, 0x01, 0x00, 0x00, 0x00, 0x01, 0x00, 0x00, 0x00,
  0x05, 0x00, 0x00, 0x00, 0x10, 0x00, 0x00, 0x00, 0x76, 0xee, 0xff, 0xff,
  0x00, 0x00, 0x00, 0x01, 0x18, 0x00, 0x00, 0x00, 0x28, 0x00, 0x00, 0x00,
  0x44, 0x00, 0x00, 0x00, 0x12, 0x00, 0x00, 0x00, 0x00, 0x00, 0x00, 0x09,
  0x6c, 0x00, 0x00, 0x00, 0x04, 0x00, 0x00, 0x00, 0xff, 0xff, 0xff, 0xff,
  0x01, 0x00, 0x00, 0x00, 0x05, 0x00, 0x00, 0x00, 0x20, 0x00, 0x00, 0x00,
  0x64, 0xee, 0xff, 0xff, 0x08, 0x00, 0x00, 0x00, 0x10, 0x00, 0x00, 0x00,
  0x01, 0x00, 0x00, 0x00, 0x80, 0xff, 0xff, 0xff, 0xff, 0xff, 0xff, 0xff,
  0x01, 0x00, 0x00, 0x00, 0x98, 0xce, 0xab, 0x3c, 0x2e, 0x00, 0x00, 0x00,
  0x73, 0x65, 0x71, 0x75, 0x65, 0x6e, 0x74, 0x69, 0x61, 0x6c, 0x5f, 0x31,
  0x2f, 0x63, 0x6f, 0x6e, 0x76, 0x31, 0x64, 0x5f, 0x31, 0x5f, 0x32, 0x2f,
  0x63, 0x6f, 0x6e, 0x76, 0x6f, 0x6c, 0x75, 0x74, 0x69, 0x6f, 0x6e, 0x2f,
  0x45, 0x78, 0x70, 0x61, 0x6e, 0x64, 0x44, 0x69, 0x6d, 0x73, 0x00, 0x00,
  0x04, 0x00, 0x00, 0x00, 0x01, 0x00, 0x00, 0x00, 0x01, 0x00, 0x00, 0x00,
  0x05, 0x00, 0x00, 0x00, 0x20, 0x00, 0x00, 0x00, 0x12, 0xef, 0xff, 0xff,
  0x00, 0x00, 0x00, 0x01, 0x18, 0x00, 0x00, 0x00, 0x24, 0x00, 0x00, 0x00,
  0x44, 0x00, 0x00, 0x00, 0x11, 0x00, 0x00, 0x00, 0x00, 0x00, 0x00, 0x09,
  0xa0, 0x00, 0x00, 0x00, 0x03, 0x00, 0x00, 0x00, 0xff, 0xff, 0xff, 0xff,
  0x05, 0x00, 0x00, 0x00, 0x20, 0x00, 0x00, 0x00, 0xfc, 0xee, 0xff, 0xff,
  0x08, 0x00, 0x00, 0x00, 0x14, 0x00, 0x00, 0x00, 0x01, 0x00, 0x00, 0x00,
  0x80, 0xff, 0xff, 0xff, 0xff, 0xff, 0xff, 0xff, 0x00, 0x00, 0x00, 0x00,
  0x01, 0x00, 0x00, 0x00, 0x98, 0xce, 0xab, 0x3c, 0x63, 0x00, 0x00, 0x00,
  0x73, 0x65, 0x71, 0x75, 0x65, 0x6e, 0x74, 0x69, 0x61, 0x6c, 0x5f, 0x31,
  0x2f, 0x63, 0x6f, 0x6e, 0x76, 0x31, 0x64, 0x5f, 0x31, 0x2f, 0x52, 0x65,
  0x6c, 0x75, 0x3b, 0x73, 0x65, 0x71, 0x75, 0x65, 0x6e, 0x74, 0x69, 0x61,
  0x6c, 0x5f, 0x31, 0x2f, 0x63, 0x6f, 0x6e, 0x76, 0x31, 0x64, 0x5f, 0x31,
  0x2f, 0x42, 0x69, 0x61, 0x73, 0x41, 0x64, 0x64, 0x3b, 0x73, 0x65, 0x71,
  0x75, 0x65, 0x6e, 0x74, 0x69, 0x61, 0x6c, 0x5f, 0x31, 0x2f, 0x63, 0x6f,
  0x6e, 0x76, 0x31, 0x64, 0x5f, 0x31, 0x2f, 0x63, 0x6f, 0x6e, 0x76, 0x6f,
  0x6c, 0x75, 0x74, 0x69, 0x6f, 0x6e, 0x2f, 0x53, 0x71, 0x75, 0x65, 0x65,
  0x7a, 0x65, 0x3b, 0x00, 0x03, 0x00, 0x00, 0x00, 0x01, 0x00, 0x00, 0x00,
  0x05, 0x00, 0x00, 0x00, 0x20, 0x00, 0x00, 0x00, 0xde, 0xef, 0xff, 0xff,
  0x00, 0x00, 0x00, 0x01, 0x18, 0x00, 0x00, 0x00, 0x28, 0x00, 0x00, 0x00,
  0x48, 0x00, 0x00, 0x00, 0x10, 0x00, 0x00, 0x00, 0x00, 0x00, 0x00, 0x09,
  0xc8, 0x00, 0x00, 0x00, 0x04, 0x00, 0x00, 0x00, 0xff, 0xff, 0xff, 0xff,
  0x01, 0x00, 0x00, 0x00, 0x05, 0x00, 0x00, 0x00, 0x20, 0x00, 0x00, 0x00,
  0xcc, 0xef, 0xff, 0xff, 0x08, 0x00, 0x00, 0x00, 0x14, 0x00, 0x00, 0x00,
  0x01, 0x00, 0x00, 0x00, 0x80, 0xff, 0xff, 0xff, 0xff, 0xff, 0xff, 0xff,
  0x00, 0x00, 0x00, 0x00, 0x01, 0x00, 0x00, 0x00, 0x98, 0xce, 0xab, 0x3c,
  0x85, 0x00, 0x00, 0x00, 0x73, 0x65, 0x71, 0x75, 0x65, 0x6e, 0x74, 0x69,
  0x61, 0x6c, 0x5f, 0x31, 0x2f, 0x63, 0x6f, 0x6e, 0x76, 0x31, 0x64, 0x5f,
  0x31, 0x2f, 0x52, 0x65, 0x6c, 0x75, 0x3b, 0x73, 0x65, 0x71, 0x75, 0x65,
  0x6e, 0x74, 0x69, 0x61, 0x6c, 0x5f, 0x31, 0x2f, 0x63, 0x6f, 0x6e, 0x76,
  0x31, 0x64, 0x5f, 0x31, 0x2f, 0x42, 0x69, 0x61, 0x73, 0x41, 0x64, 0x64,
  0x3b, 0x73, 0x65, 0x71, 0x75, 0x65, 0x6e, 0x74, 0x69, 0x61, 0x6c, 0x5f,
  0x31, 0x2f, 0x63, 0x6f, 0x6e, 0x76, 0x31, 0x64, 0x5f, 0x31, 0x2f, 0x63,
  0x6f, 0x6e, 0x76, 0x6f, 0x6c, 0x75, 0x74, 0x69, 0x6f, 0x6e, 0x2f, 0x53,
  0x71, 0x75, 0x65, 0x65, 0x7a, 0x65, 0x3b, 0x3b, 0x73, 0x65, 0x71, 0x75,
  0x65, 0x6e, 0x74, 0x69, 0x61, 0x6c, 0x5f, 0x31, 0x2f, 0x63, 0x6f, 0x6e,
  0x76, 0x31, 0x64, 0x5f, 0x31, 0x2f, 0x63, 0x6f, 0x6e, 0x76, 0x6f, 0x6c,
  0x75, 0x74, 0x69, 0x6f, 0x6e, 0x00, 0x00, 0x00, 0x04, 0x00, 0x00, 0x00,
  0x01, 0x00, 0x00, 0x00, 0x01, 0x00, 0x00, 0x00, 0x05, 0x00, 0x00, 0x00,
  0x20, 0x00, 0x00, 0x00, 0xd6, 0xf0, 0xff, 0xff, 0x00, 0x00, 0x00, 0x01,
  0x18, 0x00, 0x00, 0x00, 0x28, 0x00, 0x00, 0x00, 0x48, 0x00, 0x00, 0x00,
  0x0f, 0x00, 0x00, 0x00, 0x00, 0x00, 0x00, 0x09, 0x70, 0x00, 0x00, 0x00,
  0x04, 0x00, 0x00, 0x00, 0xff, 0xff, 0xff, 0xff, 0x01, 0x00, 0x00, 0x00,
  0x05, 0x00, 0x00, 0x00, 0x06, 0x00, 0x00, 0x00, 0xc4, 0xf0, 0xff, 0xff,
  0x08, 0x00, 0x00, 0x00, 0x14, 0x00, 0x00, 0x00, 0x01, 0x00, 0x00, 0x00,
  0x0e, 0x00, 0x00, 0x00, 0x00, 0x00, 0x00, 0x00, 0x00, 0x00, 0x00, 0x00,
  0x01, 0x00, 0x00, 0x00, 0xeb, 0x26, 0xc9, 0x3c, 0x2c, 0x00, 0x00, 0x00,
  0x73, 0x65, 0x71, 0x75, 0x65, 0x6e, 0x74, 0x69, 0x61, 0x6c, 0x5f, 0x31,
  0x2f, 0x63, 0x6f, 0x6e, 0x76, 0x31, 0x64, 0x5f, 0x31, 0x2f, 0x63, 0x6f,
  0x6e, 0x76, 0x6f, 0x6c, 0x75, 0x74, 0x69, 0x6f, 0x6e, 0x2f, 0x45, 0x78,
  0x70, 0x61, 0x6e, 0x64, 0x44, 0x69, 0x6d, 0x73, 0x00, 0x00, 0x00, 0x00,
  0x04, 0x00, 0x00, 0x00, 0x01, 0x00, 0x00, 0x00, 0x01, 0x00, 0x00, 0x00,
  0x05, 0x00, 0x00, 0x00, 0x06, 0x00, 0x00, 0x00, 0xca, 0xf1, 0xff, 0xff,
  0x00, 0x00, 0x00, 0x01, 0x14, 0x00, 0x00, 0x00, 0xa8, 0x01, 0x00, 0x00,
  0x0e, 0x00, 0x00, 0x00, 0x00, 0x00, 0x00, 0x09, 0xb4, 0x01, 0x00, 0x00,
  0x4c, 0xf1, 0xff, 0xff, 0x08, 0x00, 0x00, 0x00, 0x0c, 0x01, 0x00, 0x00,
  0x20, 0x00, 0x00, 0x00, 0x00, 0x00, 0x00, 0x00, 0x00, 0x00, 0x00, 0x00,
  0x00, 0x00, 0x00, 0x00, 0x00, 0x00, 0x00, 0x00, 0x00, 0x00, 0x00, 0x00,
  0x00, 0x00, 0x00, 0x00, 0x00, 0x00, 0x00, 0x00, 0x00, 0x00, 0x00, 0x00,
  0x00, 0x00, 0x00, 0x00, 0x00, 0x00, 0x00, 0x00, 0x00, 0x00, 0x00, 0x00,
  0x00, 0x00, 0x00, 0x00, 0x00, 0x00, 0x00, 0x00, 0x00, 0x00, 0x00, 0x00,
  0x00, 0x00, 0x00, 0x00, 0x00, 0x00, 0x00, 0x00, 0x00, 0x00, 0x00, 0x00,
  0x00, 0x00, 0x00, 0x00, 0x00, 0x00, 0x00, 0x00, 0x00, 0x00, 0x00, 0x00,
  0x00, 0x00, 0x00, 0x00, 0x00, 0x00, 0x00, 0x00, 0x00, 0x00, 0x00, 0x00,
  0x00, 0x00, 0x00, 0x00, 0x00, 0x00, 0x00, 0x00, 0x00, 0x00, 0x00, 0x00,
  0x00, 0x00, 0x00, 0x00, 0x00, 0x00, 0x00, 0x00, 0x00, 0x00, 0x00, 0x00,
  0x00, 0x00, 0x00, 0x00, 0x00, 0x00, 0x00, 0x00, 0x00, 0x00, 0x00, 0x00,
  0x00, 0x00, 0x00, 0x00, 0x00, 0x00, 0x00, 0x00, 0x00, 0x00, 0x00, 0x00,
  0x00, 0x00, 0x00, 0x00, 0x00, 0x00, 0x00, 0x00, 0x00, 0x00, 0x00, 0x00,
  0x00, 0x00, 0x00, 0x00, 0x00, 0x00, 0x00, 0x00, 0x00, 0x00, 0x00, 0x00,
  0x00, 0x00, 0x00, 0x00, 0x00, 0x00, 0x00, 0x00, 0x00, 0x00, 0x00, 0x00,
  0x00, 0x00, 0x00, 0x00, 0x00, 0x00, 0x00, 0x00, 0x00, 0x00, 0x00, 0x00,
  0x00, 0x00, 0x00, 0x00, 0x00, 0x00, 0x00, 0x00, 0x00, 0x00, 0x00, 0x00,
  0x00, 0x00, 0x00, 0x00, 0x00, 0x00, 0x00, 0x00, 0x00, 0x00, 0x00, 0x00,
  0x00, 0x00, 0x00, 0x00, 0x00, 0x00, 0x00, 0x00, 0x00, 0x00, 0x00, 0x00,
  0x00, 0x00, 0x00, 0x00, 0x00, 0x00, 0x00, 0x00, 0x00, 0x00, 0x00, 0x00,
  0x00, 0x00, 0x00, 0x00, 0x00, 0x00, 0x00, 0x00, 0x00, 0x00, 0x00, 0x00,
  0x00, 0x00, 0x00, 0x00, 0x00, 0x00, 0x00, 0x00, 0x00, 0x00, 0x00, 0x00,
  0x20, 0x00, 0x00, 0x00, 0xb7, 0x14, 0x3f, 0x3b, 0x3d, 0xff, 0x6d, 0x3b,
  0x00, 0x0a, 0x61, 0x3b, 0x33, 0x65, 0x79, 0x3b, 0x92, 0xce, 0x44, 0x3b,
  0x0e, 0x14, 0x18, 0x3b, 0x3a, 0xed, 0x98, 0x3b, 0xe8, 0x26, 0x8f, 0x3b,
  0xf9, 0x44, 0x3a, 0x3b, 0x43, 0xa6, 0x49, 0x3b, 0x03, 0xe5, 0xac, 0x3b,
  0x77, 0x2c, 0x52, 0x3b, 0xdf, 0xff, 0x58, 0x3b, 0x6a, 0xd0, 0x13, 0x3b,
  0xcc, 0x66, 0x1f, 0x3b, 0xa2, 0x1e, 0x8e, 0x3b, 0x80, 0x79, 0x83, 0x3b,
  0x37, 0xb5, 0x8c, 0x3b, 0x02, 0xd5, 0xb1, 0x3a, 0xda, 0x90, 0x2c, 0x3b,
  0x80, 0x08, 0x4b, 0x3b, 0xf8, 0x03, 0x7c, 0x3b, 0x78, 0xf9, 0x4b, 0x3b,
  0x9b, 0xb9, 0x56, 0x3b, 0xaa, 0xb2, 0x96, 0x3b, 0xee, 0xdb, 0x8d, 0x3b,
  0x98, 0x7b, 0x96, 0x3b, 0xbf, 0x36, 0x57, 0x3b, 0xcd, 0xe4, 0x5d, 0x3b,
  0x63, 0x08, 0x8b, 0x3b, 0x13, 0xe2, 0x7a, 0x3b, 0x9e, 0x81, 0xa0, 0x3b,
  0x12, 0x00, 0x00, 0x00, 0x74, 0x66, 0x6c, 0x2e, 0x70, 0x73, 0x65, 0x75,
  0x64, 0x6f, 0x5f, 0x71, 0x63, 0x6f, 0x6e, 0x73, 0x74, 0x37, 0x00, 0x00,
  0x04, 0x00, 0x00, 0x00, 0x20, 0x00, 0x00, 0x00, 0x01, 0x00, 0x00, 0x00,
  0x02, 0x00, 0x00, 0x00, 0x06, 0x00, 0x00, 0x00, 0xaa, 0xf3, 0xff, 0xff,
  0x00, 0x00, 0x00, 0x01, 0x14, 0x00, 0x00, 0x00, 0xa4, 0x01, 0x00, 0x00,
  0x0d, 0x00, 0x00, 0x00, 0x00, 0x00, 0x00, 0x02, 0xb0, 0x01, 0x00, 0x00,
  0x2c, 0xf3, 0xff, 0xff, 0x08, 0x00, 0x00, 0x00, 0x08, 0x01, 0x00, 0x00,
  0x20, 0x00, 0x00, 0x00, 0x00, 0x00, 0x00, 0x00, 0x00, 0x00, 0x00, 0x00,
  0x00, 0x00, 0x00, 0x00, 0x00, 0x00, 0x00, 0x00, 0x00, 0x00, 0x00, 0x00,
  0x00, 0x00, 0x00, 0x00, 0x00, 0x00, 0x00, 0x00, 0x00, 0x00, 0x00, 0x00,
  0x00, 0x00, 0x00, 0x00, 0x00, 0x00, 0x00, 0x00, 0x00, 0x00, 0x00, 0x00,
  0x00, 0x00, 0x00, 0x00, 0x00, 0x00, 0x00, 0x00, 0x00, 0x00, 0x00, 0x00,
  0x00, 0x00, 0x00, 0x00, 0x00, 0x00, 0x00, 0x00, 0x00, 0x00, 0x00, 0x00,
  0x00, 0x00, 0x00, 0x00, 0x00, 0x00, 0x00, 0x00, 0x00, 0x00, 0x00, 0x00,
  0x00, 0x00, 0x00, 0x00, 0x00, 0x00, 0x00, 0x00, 0x00, 0x00, 0x00, 0x00,
  0x00, 0x00, 0x00, 0x00, 0x00, 0x00, 0x00, 0x00, 0x00, 0x00, 0x00, 0x00,
  0x00, 0x00, 0x00, 0x00, 0x00, 0x00, 0x00, 0x00, 0x00, 0x00, 0x00, 0x00,
  0x00, 0x00, 0x00, 0x00, 0x00, 0x00, 0x00, 0x00, 0x00, 0x00, 0x00, 0x00,
  0x00, 0x00, 0x00, 0x00, 0x00, 0x00, 0x00, 0x00, 0x00, 0x00, 0x00, 0x00,
  0x00, 0x00, 0x00, 0x00, 0x00, 0x00, 0x00, 0x00, 0x00, 0x00, 0x00, 0x00,
  0x00, 0x00, 0x00, 0x00, 0x00, 0x00, 0x00, 0x00, 0x00, 0x00, 0x00, 0x00,
  0x00, 0x00, 0x00, 0x00, 0x00, 0x00, 0x00, 0x00, 0x00, 0x00, 0x00, 0x00,
  0x00, 0x00, 0x00, 0x00, 0x00, 0x00, 0x00, 0x00, 0x00, 0x00, 0x00, 0x00,
  0x00, 0x00, 0x00, 0x00, 0x00, 0x00, 0x00, 0x00, 0x00, 0x00, 0x00, 0x00,
  0x00, 0x00, 0x00, 0x00, 0x00, 0x00, 0x00, 0x00, 0x00, 0x00, 0x00, 0x00,
  0x00, 0x00, 0x00, 0x00, 0x00, 0x00, 0x00, 0x00, 0x00, 0x00, 0x00, 0x00,
  0x00, 0x00, 0x00, 0x00, 0x00, 0x00, 0x00, 0x00, 0x00, 0x00, 0x00, 0x00,
  0x00, 0x00, 0x00, 0x00, 0x00, 0x00, 0x00, 0x00, 0x00, 0x00, 0x00, 0x00,
  0x00, 0x00, 0x00, 0x00, 0x00, 0x00, 0x00, 0x00, 0x20, 0x00, 0x00, 0x00,
  0x50, 0x24, 0x96, 0x38, 0x95, 0x01, 0xbb, 0x38, 0x10, 0xd3, 0xb0, 0x38,
  0x5f, 0xf6, 0xc3, 0x38, 0x1c, 0xa4, 0x9a, 0x38, 0xbb, 0xfd, 0x6e, 0x38,
  0x04, 0x53, 0xf0, 0x38, 0x9f, 0xf6, 0xe0, 0x38, 0x79, 0x5c, 0x92, 0x38,
  0x32, 0x72, 0x9e, 0x38, 0x18, 0xda, 0x07, 0x39, 0xdd, 0x24, 0xa5, 0x38,
  0xe3, 0x81, 0xaa, 0x38, 0x38, 0x4a, 0x68, 0x38, 0xe4, 0x7f, 0x7a, 0x38,
  0x50, 0x57, 0xdf, 0x38, 0xc4, 0x9c, 0xce, 0x38, 0x58, 0x1f, 0xdd, 0x38,
  0x47, 0xbb, 0x0b, 0x38, 0xf7, 0x97, 0x87, 0x38, 0x8a, 0x88, 0x9f, 0x38,
  0x6e, 0x05, 0xc6, 0x38, 0xe1, 0x45, 0xa0, 0x38, 0x5f, 0xb8, 0xa8, 0x38,
  0x61, 0xd2, 0xec, 0x38, 0x7d, 0xee, 0xde, 0x38, 0xd6, 0x7b, 0xec, 0x38,
  0xb4, 0x1a, 0xa9, 0x38, 0x61, 0x5a, 0xae, 0x38, 0x71, 0x7d, 0xda, 0x38,
  0xa5, 0x21, 0xc5, 0x38, 0x57, 0x3c, 0xfc, 0x38, 0x12, 0x00, 0x00, 0x00,
  0x74, 0x66, 0x6c, 0x2e, 0x70, 0x73, 0x65, 0x75, 0x64, 0x6f, 0x5f, 0x71,
  0x63, 0x6f, 0x6e, 0x73, 0x74, 0x36, 0x00, 0x00, 0x01, 0x00, 0x00, 0x00,
  0x20, 0x00, 0x00, 0x00, 0x7a, 0xf5, 0xff, 0xff, 0x00, 0x00, 0x00, 0x01,
  0x14, 0x00, 0x00, 0x00, 0xe8, 0x00, 0x00, 0x00, 0x0c, 0x00, 0x00, 0x00,
  0x00, 0x00, 0x00, 0x09, 0xf4, 0x00, 0x00, 0x00, 0xfc, 0xf4, 0xff, 0xff,
  0x08, 0x00, 0x00, 0x00, 0x8c, 0x00, 0x00, 0x00, 0x10, 0x00, 0x00, 0x00,
  0x00, 0x00, 0x00, 0x00, 0x00, 0x00, 0x00, 0x00, 0x00, 0x00, 0x00, 0x00,
  0x00, 0x00, 0x00, 0x00, 0x00, 0x00, 0x00, 0x00, 0x00, 0x00, 0x00, 0x00,
  0x00, 0x00, 0x00, 0x00, 0x00, 0x00, 0x00, 0x00, 0x00, 0x00, 0x00, 0x00,
  0x00, 0x00, 0x00, 0x00, 0x00, 0x00, 0x00, 0x00, 0x00, 0x00, 0x00, 0x00,
  0x00, 0x00, 0x00, 0x00, 0x00, 0x00, 0x00, 0x00, 0x00, 0x00, 0x00, 0x00,
  0x00, 0x00, 0x00, 0x00, 0x00, 0x00, 0x00, 0x00, 0x00, 0x00, 0x00, 0x00,
  0x00, 0x00, 0x00, 0x00, 0x00, 0x00, 0x00, 0x00, 0x00, 0x00, 0x00, 0x00,
  0x00, 0x00, 0x00, 0x00, 0x00, 0x00, 0x00, 0x00, 0x00, 0x00, 0x00, 0x00,
  0x00, 0x00, 0x00, 0x00, 0x00, 0x00, 0x00, 0x00, 0x00, 0x00, 0x00, 0x00,
  0x00, 0x00, 0x00, 0x00, 0x00, 0x00, 0x00, 0x00, 0x00, 0x00, 0x00, 0x00,
  0x00, 0x00, 0x00, 0x00, 0x00, 0x00, 0x00, 0x00, 0x00, 0x00, 0x00, 0x00,
  0x10, 0x00, 0x00, 0x00, 0x81, 0xdf, 0x9d, 0x3b, 0x25, 0xb8, 0xaf, 0x3b,
  0x61, 0x12, 0xa4, 0x3b, 0x4f, 0x2e, 0xd9, 0x3b, 0x90, 0x36, 0xb9, 0x3b,
  0x37, 0x17, 0x71, 0x3b, 0xb2, 0xdd, 0x8d, 0x3b, 0xf4, 0x4a, 0xab, 0x3b,
  0x5b, 0x79, 0x8b, 0x3b, 0x5b, 0xa7, 0xbc, 0x3b, 0x84, 0x2a, 0x9a, 0x3b,
  0x6a, 0x1f, 0xc7, 0x3b, 0x27, 0x41, 0xc4, 0x3b, 0xc9, 0x86, 0x72, 0x3b,
  0x20, 0xc9, 0xdb, 0x3b, 0x81, 0x72, 0x92, 0x3b, 0x12, 0x00, 0x00, 0x00,
  0x74, 0x66, 0x6c, 0x2e, 0x70, 0x73, 0x65, 0x75, 0x64, 0x6f, 0x5f, 0x71,
  0x63, 0x6f, 0x6e, 0x73, 0x74, 0x35, 0x00, 0x00, 0x04, 0x00, 0x00, 0x00,
  0x10, 0x00, 0x00, 0x00, 0x01, 0x00, 0x00, 0x00, 0x02, 0x00, 0x00, 0x00,
  0x20, 0x00, 0x00, 0x00, 0x9a, 0xf6, 0xff, 0xff, 0x00, 0x00, 0x00, 0x01,
  0x14, 0x00, 0x00, 0x00, 0xe4, 0x00, 0x00, 0x00, 0x0b, 0x00, 0x00, 0x00,
  0x00, 0x00, 0x00, 0x02, 0xf0, 0x00, 0x00, 0x00, 0x1c, 0xf6, 0xff, 0xff,
  0x08, 0x00, 0x00, 0x00, 0x88, 0x00, 0x00, 0x00, 0x10, 0x00, 0x00, 0x00,
  0x00, 0x00, 0x00, 0x00, 0x00, 0x00, 0x00, 0x00, 0x00, 0x00, 0x00, 0x00,
  0x00, 0x00, 0x00, 0x00, 0x00, 0x00, 0x00, 0x00, 0x00, 0x00, 0x00, 0x00,
  0x00, 0x00, 0x00, 0x00, 0x00, 0x00, 0x00, 0x00, 0x00, 0x00, 0x00, 0x00,
  0x00, 0x00, 0x00, 0x00, 0x00, 0x00, 0x00, 0x00, 0x00, 0x00, 0x00, 0x00,
  0x00, 0x00, 0x00, 0x00, 0x00, 0x00, 0x00, 0x00, 0x00, 0x00, 0x00, 0x00,
  0x00, 0x00, 0x00, 0x00, 0x00, 0x00, 0x00, 0x00, 0x00, 0x00, 0x00, 0x00,
  0x00, 0x00, 0x00, 0x00, 0x00, 0x00, 0x00, 0x00, 0x00, 0x00, 0x00, 0x00,
  0x00, 0x00, 0x00, 0x00, 0x00, 0x00, 0x00, 0x00, 0x00, 0x00, 0x00, 0x00,
  0x00, 0x00, 0x00, 0x00, 0x00, 0x00, 0x00, 0x00, 0x00, 0x00, 0x00, 0x00,
  0x00, 0x00, 0x00, 0x00, 0x00, 0x00, 0x00, 0x00, 0x00, 0x00, 0x00, 0x00,
  0x00, 0x00, 0x00, 0x00, 0x00, 0x00, 0x00, 0x00, 0x10, 0x00, 0x00, 0x00,
  0x66, 0xe7, 0xd3, 0x38, 0x9e, 0xdb, 0xeb, 0x38, 0x5e, 0x39, 0xdc, 0x38,
  0x33, 0xc1, 0x11, 0x39, 0xd4, 0x99, 0xf8, 0x38, 0x12, 0xcd, 0xa1, 0x38,
  0x25, 0x6b, 0xbe, 0x38, 0x9a, 0xea, 0xe5, 0x38, 0x3d, 0x35, 0xbb, 0x38,
  0x11, 0x38, 0xfd, 0x38, 0xa0, 0xed, 0xce, 0x38, 0xad, 0xa2, 0x05, 0x39,
  0xe6, 0xb5, 0x03, 0x39, 0xc1, 0xc3, 0xa2, 0x38, 0xb7, 0x80, 0x13, 0x39,
  0x57, 0x91, 0xc4, 0x38, 0x12, 0x00, 0x00, 0x00, 0x74, 0x66, 0x6c, 0x2e,
  0x70, 0x73, 0x65, 0x75, 0x64, 0x6f, 0x5f, 0x71, 0x63, 0x6f, 0x6e, 0x73,
  0x74, 0x34, 0x00, 0x00, 0x01, 0x00, 0x00, 0x00, 0x10, 0x00, 0x00, 0x00,
  0xaa, 0xf7, 0xff, 0xff, 0x00, 0x00, 0x00, 0x01, 0x14, 0x00, 0x00, 0x00,
  0x28, 0x03, 0x00, 0x00, 0x0a, 0x00, 0x00, 0x00, 0x00, 0x00, 0x00, 0x09,
  0x34, 0x03, 0x00, 0x00, 0x2c, 0xf7, 0xff, 0xff, 0x08, 0x00, 0x00, 0x00,
  0x0c, 0x02, 0x00, 0x00, 0x40, 0x00, 0x00, 0x00, 0x00, 0x00, 0x00, 0x00,
  0x00, 0x00, 0x00, 0x00, 0x00, 0x00, 0x00, 0x00, 0x00, 0x00, 0x00, 0x00,
  0x00, 0x00, 0x00, 0x00, 0x00, 0x00, 0x00, 0x00, 0x00, 0x00, 0x00, 0x00,
  0x00, 0x00, 0x00, 0x00, 0x00, 0x00, 0x00, 0x00, 0x00, 0x00, 0x00, 0x00,
  0x00, 0x00, 0x00, 0x00, 0x00, 0x00, 0x00, 0x00, 0x00, 0x00, 0x00, 0x00,
  0x00, 0x00, 0x00, 0x00, 0x00, 0x00, 0x00, 0x00, 0x00, 0x00, 0x00, 0x00,
  0x00, 0x00, 0x00, 0x00, 0x00, 0x00, 0x00, 0x00, 0x00, 0x00, 0x00, 0x00,
  0x00, 0x00, 0x00, 0x00, 0x00, 0x00, 0x00, 0x00, 0x00, 0x00, 0x00, 0x00,
  0x00, 0x00, 0x00, 0x00, 0x00, 0x00, 0x00, 0x00, 0x00, 0x00, 0x00, 0x00,
  0x00, 0x00, 0x00, 0x00, 0x00, 0x00, 0x00, 0x00, 0x00, 0x00, 0x00, 0x00,
  0x00, 0x00, 0x00, 0x00, 0x00, 0x00, 0x00, 0x00, 0x00, 0x00, 0x00, 0x00,
  0x00, 0x00, 0x00, 0x00, 0x00, 0x00, 0x00, 0x00, 0x00, 0x00, 0x00, 0x00,
  0x00, 0x00, 0x00, 0x00, 0x00, 0x00, 0x00, 0x00, 0x00, 0x00, 0x00, 0x00,
  0x00, 0x00, 0x00, 0x00, 0x00, 0x00, 0x00, 0x00, 0x00, 0x00, 0x00, 0x00,
  0x00, 0x00, 0x00, 0x00, 0x00, 0x00, 0x00, 0x00, 0x00, 0x00, 0x00, 0x00,
  0x00, 0x00, 0x00, 0x00, 0x00, 0x00, 0x00, 0x00, 0x00, 0x00, 0x00, 0x00,
  0x00, 0x00, 0x00, 0x00, 0x00, 0x00, 0x00, 0x00, 0x00, 0x00, 0x00, 0x00,
  0x00, 0x00, 0x00, 0x00, 0x00, 0x00, 0x00, 0x00, 0x00, 0x00, 0x00, 0x00,
  0x00, 0x00, 0x00, 0x00, 0x00, 0x00, 0x00, 0x00, 0x00, 0x00, 0x00, 0x00,
  0x00, 0x00, 0x00, 0x00, 0x00, 0x00, 0x00, 0x00, 0x00, 0x00, 0x00, 0x00,
  0x00, 0x00, 0x00, 0x00, 0x00, 0x00, 0x00, 0x00, 0x00, 0x00, 0x00, 0x00,
  0x00, 0x00, 0x00, 0x00, 0x00, 0x00, 0x00, 0x00, 0x00, 0x00, 0x00, 0x00,
  0x00, 0x00, 0x00, 0x00, 0x00, 0x00, 0x00, 0x00, 0x00, 0x00, 0x00, 0x00,
  0x00, 0x00, 0x00, 0x00, 0x00, 0x00, 0x00, 0x00, 0x00, 0x00, 0x00, 0x00,
  0x00, 0x00, 0x00, 0x00, 0x00, 0x00, 0x00, 0x00, 0x00, 0x00, 0x00, 0x00,
  0x00, 0x00, 0x00, 0x00, 0x00, 0x00, 0x00, 0x00, 0x00, 0x00, 0x00, 0x00,
  0x00, 0x00, 0x00, 0x00, 0x00, 0x00, 0x00, 0x00, 0x00, 0x00, 0x00, 0x00,
  0x00, 0x00, 0x00, 0x00, 0x00, 0x00, 0x00, 0x00, 0x00, 0x00, 0x00, 0x00,
  0x00, 0x00, 0x00, 0x00, 0x00, 0x00, 0x00, 0x00, 0x00, 0x00, 0x00, 0x00,
  0x00, 0x00, 0x00, 0x00, 0x00, 0x00, 0x00, 0x00, 0x00, 0x00, 0x00, 0x00,
  0x00, 0x00, 0x00, 0x00, 0x00, 0x00, 0x00, 0x00, 0x00, 0x00, 0x00, 0x00,
  0x00, 0x00, 0x00, 0x00, 0x00, 0x00, 0x00, 0x00, 0x00, 0x00, 0x00, 0x00,
  0x00, 0x00, 0x00, 0x00, 0x00, 0x00, 0x00, 0x00, 0x00, 0x00, 0x00, 0x00,
  0x00, 0x00, 0x00, 0x00, 0x00, 0x00, 0x00, 0x00, 0x00, 0x00, 0x00, 0x00,
  0x00, 0x00, 0x00, 0x00, 0x00, 0x00, 0x00, 0x00, 0x00, 0x00, 0x00, 0x00,
  0x00, 0x00, 0x00, 0x00, 0x00, 0x00, 0x00, 0x00, 0x00, 0x00, 0x00, 0x00,
  0x00, 0x00, 0x00, 0x00, 0x00, 0x00, 0x00, 0x00, 0x00, 0x00, 0x00, 0x00,
  0x00, 0x00, 0x00, 0x00, 0x00, 0x00, 0x00, 0x00, 0x00, 0x00, 0x00, 0x00,
  0x00, 0x00, 0x00, 0x00, 0x00, 0x00, 0x00, 0x00, 0x00, 0x00, 0x00, 0x00,
  0x00, 0x00, 0x00, 0x00, 0x00, 0x00, 0x00, 0x00, 0x00, 0x00, 0x00, 0x00,
  0x00, 0x00, 0x00, 0x00, 0x00, 0x00, 0x00, 0x00, 0x00, 0x00, 0x00, 0x00,
  0x00, 0x00, 0x00, 0x00, 0x00, 0x00, 0x00, 0x00, 0x00, 0x00, 0x00, 0x00,
  0x00, 0x00, 0x00, 0x00, 0x00, 0x00, 0x00, 0x00, 0x00, 0x00, 0x00, 0x00,
  0x00, 0x00, 0x00, 0x00, 0x00, 0x00, 0x00, 0x00, 0x40, 0x00, 0x00, 0x00,
  0xf4, 0xc1, 0x97, 0x3b, 0xff, 0x58, 0x75, 0x3b, 0xe7, 0xf9, 0x9b, 0x3b,
  0x87, 0x6d, 0x6e, 0x3b, 0x87, 0x54, 0x9d, 0x3b, 0x48, 0x80, 0x56, 0x3b,
  0xb0, 0x68, 0xb3, 0x3b, 0xf4, 0x55, 0x94, 0x3b, 0xb7, 0xbf, 0x85, 0x3b,
  0xc8, 0x3e, 0x83, 0x3b, 0x79, 0x30, 0x92, 0x3b, 0x60, 0x39, 0x80, 0x3b,
  0x98, 0xb4, 0xbf, 0x3b, 0xee, 0xa0, 0xb2, 0x3b, 0x9a, 0x11, 0x90, 0x3b,
  0x61, 0x5e, 0xaf, 0x3b, 0xf6, 0x6c, 0x91, 0x3b, 0x15, 0xfe, 0x91, 0x3b,
  0x64, 0x9b, 0x45, 0x3b, 0x69, 0x77, 0xa1, 0x3b, 0x4d, 0x19, 0x95, 0x3b,
  0xe4, 0x7d, 0x8b, 0x3b, 0xba, 0xec, 0x81, 0x3b, 0xd0, 0x5d, 0x77, 0x3b,
  0x82, 0x46, 0x94, 0x3b, 0x0d, 0xb3, 0x7d, 0x3b, 0xa6, 0x35, 0x8a, 0x3b,
  0x0b, 0xf8, 0x93, 0x3b, 0xf7, 0x73, 0x6c, 0x3b, 0xd3, 0x5b, 0x98, 0x3b,
  0x5f, 0xc3, 0x97, 0x3b, 0xbd, 0xa4, 0x90, 0x3b, 0x8e, 0x2f, 0x86, 0x3b,
  0x3e, 0xdd, 0x8a, 0x3b, 0xf0, 0x43, 0x94, 0x3b, 0xc9, 0x3c, 0x91, 0x3b,
  0xac, 0x05, 0x8c, 0x3b, 0xfd, 0x26, 0xa4, 0x3b, 0xcf, 0x3c, 0x8a, 0x3b,
  0xaa, 0xb9, 0xa2, 0x3b, 0x7d, 0xd6, 0x8b, 0x3b, 0x3f, 0xb0, 0x85, 0x3b,
  0x33, 0x6c, 0x90, 0x3b, 0xe3, 0x22, 0x85, 0x3b, 0x4f, 0xeb, 0x6e, 0x3b,
  0xd9, 0x4f, 0x75, 0x3b, 0x5d, 0x15, 0x88, 0x3b, 0xaf, 0x84, 0x63, 0x3b,
  0xe3, 0x46, 0x92, 0x3b, 0xa8, 0x34, 0x96, 0x3b, 0x34, 0xa0, 0x89, 0x3b,
  0xee, 0x46, 0x8e, 0x3b, 0x25, 0x59, 0x9b, 0x3b, 0x64, 0x8f, 0x99, 0x3b,
  0xb2, 0x6a, 0x9e, 0x3b, 0x67, 0x17, 0xa3, 0x3b, 0x75, 0xa0, 0xc4, 0x3b,
  0x52, 0x3c, 0x99, 0x3b, 0x8c, 0xd1, 0xa6, 0x3b, 0x74, 0x8f, 0xbd, 0x3b,
  0xc6, 0xb8, 0xa0, 0x3b, 0xd8, 0x13, 0x88, 0x3b, 0x4d, 0x71, 0x86, 0x3b,
  0x03, 0xd1, 0x8a, 0x3b, 0x12, 0x00, 0x00, 0x00, 0x74, 0x66, 0x6c, 0x2e,
  0x70, 0x73, 0x65, 0x75, 0x64, 0x6f, 0x5f, 0x71, 0x63, 0x6f, 0x6e, 0x73,
  0x74, 0x33, 0x00, 0x00, 0x02, 0x00, 0x00, 0x00, 0x40, 0x00, 0x00, 0x00,
  0x20, 0x00, 0x00, 0x00, 0x02, 0xfb, 0xff, 0xff, 0x00, 0x00, 0x00, 0x01,
  0x14, 0x00, 0x00, 0x00, 0x24, 0x03, 0x00, 0x00, 0x09, 0x00, 0x00, 0x00,
  0x00, 0x00, 0x00, 0x02, 0x30, 0x03, 0x00, 0x00, 0x84, 0xfa, 0xff, 0xff,
  0x08, 0x00, 0x00, 0x00, 0x08, 0x02, 0x00, 0x00, 0x40, 0x00, 0x00, 0x00,
  0x00, 0x00, 0x00, 0x00, 0x00, 0x00, 0x00, 0x00, 0x00, 0x00, 0x00, 0x00,
  0x00, 0x00, 0x00, 0x00, 0x00, 0x00, 0x00, 0x00, 0x00, 0x00, 0x00, 0x00,
  0x00, 0x00, 0x00, 0x00, 0x00, 0x00, 0x00, 0x00, 0x00, 0x00, 0x00, 0x00,
  0x00, 0x00, 0x00, 0x00, 0x00, 0x00, 0x00, 0x00, 0x00, 0x00, 0x00, 0x00,
  0x00, 0x00, 0x00, 0x00, 0x00, 0x00, 0x00, 0x00, 0x00, 0x00, 0x00, 0x00,
  0x00, 0x00, 0x00, 0x00, 0x00, 0x00, 0x00, 0x00, 0x00, 0x00, 0x00, 0x00,
  0x00, 0x00, 0x00, 0x00, 0x00, 0x00, 0x00, 0x00, 0x00, 0x00, 0x00, 0x00,
  0x00, 0x00, 0x00, 0x00, 0x00, 0x00, 0x00, 0x00, 0x00, 0x00, 0x00, 0x00,
  0x00, 0x00, 0x00, 0x00, 0x00, 0x00, 0x00, 0x00, 0x00, 0x00, 0x00, 0x00,
  0x00, 0x00, 0x00, 0x00, 0x00, 0x00, 0x00, 0x00, 0x00, 0x00, 0x00, 0x00,
  0x00, 0x00, 0x00, 0x00, 0x00, 0x00, 0x00, 0x00, 0x00, 0x00, 0x00, 0x00,
  0x00, 0x00, 0x00, 0x00, 0x00, 0x00, 0x00, 0x00, 0x00, 0x00, 0x00, 0x00,
  0x00, 0x00, 0x00, 0x00, 0x00, 0x00, 0x00, 0x00, 0x00, 0x00, 0x00, 0x00,
  0x00, 0x00, 0x00, 0x00, 0x00, 0x00, 0x00, 0x00, 0x00, 0x00, 0x00, 0x00,
  0x00, 0x00, 0x00, 0x00, 0x00, 0x00, 0x00, 0x00, 0x00, 0x00, 0x00, 0x00,
  0x00, 0x00, 0x00, 0x00, 0x00, 0x00, 0x00, 0x00, 0x00, 0x00, 0x00, 0x00,
  0x00, 0x00, 0x00, 0x00, 0x00, 0x00, 0x00, 0x00, 0x00, 0x00, 0x00, 0x00,
  0x00, 0x00, 0x00, 0x00, 0x00, 0x00, 0x00, 0x00, 0x00, 0x00, 0x00, 0x00,
  0x00, 0x00, 0x00, 0x00, 0x00, 0x00, 0x00, 0x00, 0x00, 0x00, 0x00, 0x00,
  0x00, 0x00, 0x00, 0x00, 0x00, 0x00, 0x00, 0x00, 0x00, 0x00, 0x00, 0x00,
  0x00, 0x00, 0x00, 0x00, 0x00, 0x00, 0x00, 0x00, 0x00, 0x00, 0x00, 0x00,
  0x00, 0x00, 0x00, 0x00, 0x00, 0x00, 0x00, 0x00, 0x00, 0x00, 0x00, 0x00,
  0x00, 0x00, 0x00, 0x00, 0x00, 0x00, 0x00, 0x00, 0x00, 0x00, 0x00, 0x00,
  0x00, 0x00, 0x00, 0x00, 0x00, 0x00, 0x00, 0x00, 0x00, 0x00, 0x00, 0x00,
  0x00, 0x00, 0x00, 0x00, 0x00, 0x00, 0x00, 0x00, 0x00, 0x00, 0x00, 0x00,
  0x00, 0x00, 0x00, 0x00, 0x00, 0x00, 0x00, 0x00, 0x00, 0x00, 0x00, 0x00,
  0x00, 0x00, 0x00, 0x00, 0x00, 0x00, 0x00, 0x00, 0x00, 0x00, 0x00, 0x00,
  0x00, 0x00, 0x00, 0x00, 0x00, 0x00, 0x00, 0x00, 0x00, 0x00, 0x00, 0x00,
  0x00, 0x00, 0x00, 0x00, 0x00, 0x00, 0x00, 0x00, 0x00, 0x00, 0x00, 0x00,
  0x00, 0x00, 0x00, 0x00, 0x00, 0x00, 0x00, 0x00, 0x00, 0x00, 0x00, 0x00,
  0x00, 0x00, 0x00, 0x00, 0x00, 0x00, 0x00, 0x00, 0x00, 0x00, 0x00, 0x00,
  0x00, 0x00, 0x00, 0x00, 0x00, 0x00, 0x00, 0x00, 0x00, 0x00, 0x00, 0x00,
  0x00, 0x00, 0x00, 0x00, 0x00, 0x00, 0x00, 0x00, 0x00, 0x00, 0x00, 0x00,
  0x00, 0x00, 0x00, 0x00, 0x00, 0x00, 0x00, 0x00, 0x00, 0x00, 0x00, 0x00,
  0x00, 0x00, 0x00, 0x00, 0x00, 0x00, 0x00, 0x00, 0x00, 0x00, 0x00, 0x00,
  0x00, 0x00, 0x00, 0x00, 0x00, 0x00, 0x00, 0x00, 0x00, 0x00, 0x00, 0x00,
  0x00, 0x00, 0x00, 0x00, 0x00, 0x00, 0x00, 0x00, 0x00, 0x00, 0x00, 0x00,
  0x00, 0x00, 0x00, 0x00, 0x00, 0x00, 0x00, 0x00, 0x00, 0x00, 0x00, 0x00,
  0x00, 0x00, 0x00, 0x00, 0x00, 0x00, 0x00, 0x00, 0x00, 0x00, 0x00, 0x00,
  0x00, 0x00, 0x00, 0x00, 0x00, 0x00, 0x00, 0x00, 0x00, 0x00, 0x00, 0x00,
  0x00, 0x00, 0x00, 0x00, 0x00, 0x00, 0x00, 0x00, 0x00, 0x00, 0x00, 0x00,
  0x00, 0x00, 0x00, 0x00, 0x00, 0x00, 0x00, 0x00, 0x00, 0x00, 0x00, 0x00,
  0x00, 0x00, 0x00, 0x00, 0x00, 0x00, 0x00, 0x00, 0x40, 0x00, 0x00, 0x00,
  0x9d, 0xa4, 0xfb, 0x38, 0xa2, 0x6a, 0xcb, 0x38, 0xb0, 0x51, 0x01, 0x39,
  0xeb, 0xad, 0xc5, 0x38, 0x13, 0x71, 0x02, 0x39, 0x81, 0xd7, 0xb1, 0x38,
  0x40, 0xbf, 0x14, 0x39, 0x0a, 0xf8, 0xf5, 0x38, 0xf6, 0xc7, 0xdd, 0x38,
  0x2c, 0xa1, 0xd9, 0x38, 0xe5, 0x68, 0xf2, 0x38, 0xb7, 0x9e, 0xd4, 0x38,
  0x2a, 0xf1, 0x1e, 0x39, 0xa2, 0x19, 0x14, 0x39, 0xb6, 0xe4, 0xee, 0x38,
  0xb6, 0x65, 0x11, 0x39, 0xb3, 0x24, 0xf1, 0x38, 0x57, 0x15, 0xf2, 0x38,
  0xc2, 0xd5, 0xa3, 0x38, 0xfd, 0xde, 0x05, 0x39, 0xf6, 0x3b, 0xf7, 0x38,
  0xcb, 0x4d, 0xe7, 0x38, 0x9d, 0x70, 0xd7, 0x38, 0x1f, 0x17, 0xcd, 0x38,
  0x6d, 0xde, 0xf5, 0x38, 0x48, 0x57, 0xd2, 0x38, 0x81, 0x2d, 0xe5, 0x38,
  0x51, 0x5c, 0xf5, 0x38, 0xc2, 0x0a, 0xc4, 0x38, 0xc3, 0xa3, 0xfc, 0x38,
  0xf7, 0xa6, 0xfb, 0x38, 0xb1, 0xd8, 0xef, 0x38, 0x6a, 0x81, 0xde, 0x38,
  0x68, 0x43, 0xe6, 0x38, 0x2a, 0xda, 0xf5, 0x38, 0xd1, 0xd4, 0xf0, 0x38,
  0xf2, 0x2e, 0xe8, 0x38, 0x0e, 0x19, 0x08, 0x39, 0x61, 0x39, 0xe5, 0x38,
  0x2b, 0xea, 0x06, 0x39, 0xb4, 0xe0, 0xe7, 0x38, 0x50, 0xae, 0xdd, 0x38,
  0xf1, 0x7a, 0xef, 0x38, 0xe9, 0xc3, 0xdc, 0x38, 0x33, 0x16, 0xc6, 0x38,
  0x0c, 0x63, 0xcb, 0x38, 0xfa, 0xa6, 0xe1, 0x38, 0x62, 0xa2, 0xbc, 0x38,
  0x10, 0x8e, 0xf2, 0x38, 0xd2, 0x11, 0xf9, 0x38, 0xb2, 0x35, 0xe4, 0x38,
  0x26, 0xec, 0xeb, 0x38, 0x67, 0xcc, 0x00, 0x39, 0xc4, 0xa1, 0xfe, 0x38,
  0xb3, 0x57, 0x03, 0x39, 0xe2, 0x37, 0x07, 0x39, 0xb6, 0x05, 0x23, 0x39,
  0x05, 0x18, 0xfe, 0x38, 0xf6, 0x4e, 0x0a, 0x39, 0xe0, 0x29, 0x1d, 0x39,
  0xee, 0x40, 0x05, 0x39, 0x75, 0xa4, 0xe1, 0x38, 0x6f, 0xee, 0xde, 0x38,
  0x20, 0x2f, 0xe6, 0x38, 0x12, 0x00, 0x00, 0x00, 0x74, 0x66, 0x6c, 0x2e,
  0x70, 0x73, 0x65, 0x75, 0x64, 0x6f, 0x5f, 0x71, 0x63, 0x6f, 0x6e, 0x73,
  0x74, 0x32, 0x00, 0x00, 0x01, 0x00, 0x00, 0x00, 0x40, 0x00, 0x00, 0x00,
  0x52, 0xfe, 0xff, 0xff, 0x00, 0x00, 0x00, 0x01, 0x14, 0x00, 0x00, 0x00,
  0x30, 0x00, 0x00, 0x00, 0x08, 0x00, 0x00, 0x00, 0x00, 0x00, 0x00, 0x09,
  0x3c, 0x00, 0x00, 0x00, 0xd4, 0xfd, 0xff, 0xff, 0x08, 0x00, 0x00, 0x00,
  0x10, 0x00, 0x00, 0x00, 0x01, 0x00, 0x00, 0x00, 0x00, 0x00, 0x00, 0x00,
  0x00, 0x00, 0x00, 0x00, 0x01, 0x00, 0x00, 0x00, 0x5d, 0x08, 0x0d, 0x3c,
  0x12, 0x00, 0x00, 0x00, 0x74, 0x66, 0x6c, 0x2e, 0x70, 0x73, 0x65, 0x75,
  0x64, 0x6f, 0x5f, 0x71, 0x63, 0x6f, 0x6e, 0x73, 0x74, 0x31, 0x00, 0x00,
  0x02, 0x00, 0x00, 0x00, 0x01, 0x00, 0x00, 0x00, 0x40, 0x00, 0x00, 0x00,
  0xb2, 0xfe, 0xff, 0xff, 0x00, 0x00, 0x00, 0x01, 0x14, 0x00, 0x00, 0x00,
  0x34, 0x00, 0x00, 0x00, 0x07, 0x00, 0x00, 0x00, 0x00, 0x00, 0x00, 0x02,
  0x40, 0x00, 0x00, 0x00, 0x34, 0xfe, 0xff, 0xff, 0x08, 0x00, 0x00, 0x00,
  0x14, 0x00, 0x00, 0x00, 0x01, 0x00, 0x00, 0x00, 0x00, 0x00, 0x00, 0x00,
  0x00, 0x00, 0x00, 0x00, 0x00, 0x00, 0x00, 0x00, 0x01, 0x00, 0x00, 0x00,
  0xef, 0xe2, 0x00, 0x3a, 0x11, 0x00, 0x00, 0x00, 0x74, 0x66, 0x6c, 0x2e,
  0x70, 0x73, 0x65, 0x75, 0x64, 0x6f, 0x5f, 0x71, 0x63, 0x6f, 0x6e, 0x73,
  0x74, 0x00, 0x00, 0x00, 0x01, 0x00, 0x00, 0x00, 0x01, 0x00, 0x00, 0x00,
  0x12, 0xff, 0xff, 0xff, 0x00, 0x00, 0x00, 0x01, 0x14, 0x00, 0x00, 0x00,
  0x14, 0x00, 0x00, 0x00, 0x06, 0x00, 0x00, 0x00, 0x00, 0x00, 0x00, 0x02,
  0x1c, 0x00, 0x00, 0x00, 0xfc, 0xfe, 0xff, 0xff, 0x0f, 0x00, 0x00, 0x00,
  0x61, 0x72, 0x69, 0x74, 0x68, 0x2e, 0x63, 0x6f, 0x6e, 0x73, 0x74, 0x61,
  0x6e, 0x74, 0x34, 0x00, 0x01, 0x00, 0x00, 0x00, 0x02, 0x00, 0x00, 0x00,
  0x4e, 0xff, 0xff, 0xff, 0x00, 0x00, 0x00, 0x01, 0x14, 0x00, 0x00, 0x00,
  0x14, 0x00, 0x00, 0x00, 0x05, 0x00, 0x00, 0x00, 0x00, 0x00, 0x00, 0x02,
  0x1c, 0x00, 0x00, 0x00, 0x38, 0xff, 0xff, 0xff, 0x0f, 0x00, 0x00, 0x00,
  0x61, 0x72, 0x69, 0x74, 0x68, 0x2e, 0x63, 0x6f, 0x6e, 0x73, 0x74, 0x61,
  0x6e, 0x74, 0x33, 0x00, 0x00, 0x00, 0x00, 0x00, 0x86, 0xff, 0xff, 0xff,
  0x00, 0x00, 0x00, 0x01, 0x14, 0x00, 0x00, 0x00, 0x14, 0x00, 0x00, 0x00,
  0x04, 0x00, 0x00, 0x00, 0x00, 0x00, 0x00, 0x02, 0x1c, 0x00, 0x00, 0x00,
  0x70, 0xff, 0xff, 0xff, 0x0f, 0x00, 0x00, 0x00, 0x61, 0x72, 0x69, 0x74,
  0x68, 0x2e, 0x63, 0x6f, 0x6e, 0x73, 0x74, 0x61, 0x6e, 0x74, 0x32, 0x00,
  0x01, 0x00, 0x00, 0x00, 0x03, 0x00, 0x00, 0x00, 0xc2, 0xff, 0xff, 0xff,
  0x00, 0x00, 0x00, 0x01, 0x14, 0x00, 0x00, 0x00, 0x14, 0x00, 0x00, 0x00,
  0x03, 0x00, 0x00, 0x00, 0x00, 0x00, 0x00, 0x02, 0x1c, 0x00, 0x00, 0x00,
  0xac, 0xff, 0xff, 0xff, 0x0f, 0x00, 0x00, 0x00, 0x61, 0x72, 0x69, 0x74,
  0x68, 0x2e, 0x63, 0x6f, 0x6e, 0x73, 0x74, 0x61, 0x6e, 0x74, 0x31, 0x00,
  0x01, 0x00, 0x00, 0x00, 0x03, 0x00, 0x00, 0x00, 0x00, 0x00, 0x16, 0x00,
  0x1c, 0x00, 0x18, 0x00, 0x17, 0x00, 0x10, 0x00, 0x0c, 0x00, 0x08, 0x00,
  0x00, 0x00, 0x00, 0x00, 0x00, 0x00, 0x07, 0x00, 0x16, 0x00, 0x00, 0x00,
  0x00, 0x00, 0x00, 0x01, 0x18, 0x00, 0x00, 0x00, 0x18, 0x00, 0x00, 0x00,
  0x02, 0x00, 0x00, 0x00, 0x00, 0x00, 0x00, 0x02, 0x20, 0x00, 0x00, 0x00,
  0x04, 0x00, 0x04, 0x00, 0x04, 0x00, 0x00, 0x00, 0x0e, 0x00, 0x00, 0x00,
  0x61, 0x72, 0x69, 0x74, 0x68, 0x2e, 0x63, 0x6f, 0x6e, 0x73, 0x74, 0x61,
  0x6e, 0x74, 0x00, 0x00, 0x00, 0x00, 0x00, 0x00, 0x00, 0x00, 0x16, 0x00,
  0x20, 0x00, 0x1c, 0x00, 0x1b, 0x00, 0x14, 0x00, 0x10, 0x00, 0x0c, 0x00,
  0x00, 0x00, 0x00, 0x00, 0x08, 0x00, 0x07, 0x00, 0x16, 0x00, 0x00, 0x00,
  0x00, 0x00, 0x00, 0x01, 0x18, 0x00, 0x00, 0x00, 0x30, 0x00, 0x00, 0x00,
  0x4c, 0x00, 0x00, 0x00, 0x01, 0x00, 0x00, 0x00, 0x00, 0x00, 0x00, 0x09,
  0x64, 0x00, 0x00, 0x00, 0x03, 0x00, 0x00, 0x00, 0xff, 0xff, 0xff, 0xff,
  0x05, 0x00, 0x00, 0x00, 0x06, 0x00, 0x00, 0x00, 0x0c, 0x00, 0x0c, 0x00,
  0x00, 0x00, 0x00, 0x00, 0x08, 0x00, 0x04, 0x00, 0x0c, 0x00, 0x00, 0x00,
  0x08, 0x00, 0x00, 0x00, 0x10, 0x00, 0x00, 0x00, 0x01, 0x00, 0x00, 0x00,
  0x0e, 0x00, 0x00, 0x00, 0x00, 0x00, 0x00, 0x00, 0x01, 0x00, 0x00, 0x00,
  0xeb, 0x26, 0xc9, 0x3c, 0x1e, 0x00, 0x00, 0x00, 0x73, 0x65, 0x72, 0x76,
  0x69, 0x6e, 0x67, 0x5f, 0x64, 0x65, 0x66, 0x61, 0x75, 0x6c, 0x74, 0x5f,
  0x6b, 0x65, 0x72, 0x61, 0x73, 0x5f, 0x74, 0x65, 0x6e, 0x73, 0x6f, 0x72,
  0x3a, 0x30, 0x00, 0x00, 0x03, 0x00, 0x00, 0x00, 0x01, 0x00, 0x00, 0x00,
  0x05, 0x00, 0x00, 0x00, 0x06, 0x00, 0x00, 0x00, 0x06, 0x00, 0x00, 0x00,
  0x7c, 0x00, 0x00, 0x00, 0x5c, 0x00, 0x00, 0x00, 0x40, 0x00, 0x00, 0x00,
  0x2c, 0x00, 0x00, 0x00, 0x18, 0x00, 0x00, 0x00, 0x04, 0x00, 0x00, 0x00,
  0xc4, 0xff, 0xff, 0xff, 0x0e, 0x00, 0x00, 0x00, 0x02, 0x00, 0x00, 0x00,
  0x00, 0x00, 0x00, 0x0e, 0xd4, 0xff, 0xff, 0xff, 0x09, 0x00, 0x00, 0x00,
  0x04, 0x00, 0x00, 0x00, 0x00, 0x00, 0x00, 0x09, 0xe4, 0xff, 0xff, 0xff,
  0x11, 0x00, 0x00, 0x00, 0x02, 0x00, 0x00, 0x00, 0x00, 0x00, 0x00, 0x11,
  0xd8, 0xff, 0xff, 0xff, 0x16, 0x00, 0x00, 0x00, 0x00, 0x00, 0x00, 0x16,
  0x0c, 0x00, 0x10, 0x00, 0x0f, 0x00, 0x00, 0x00, 0x08, 0x00, 0x04, 0x00,
  0x0c, 0x00, 0x00, 0x00, 0x03, 0x00, 0x00, 0x00, 0x03, 0x00, 0x00, 0x00,
  0x00, 0x00, 0x00, 0x03, 0x0c, 0x00, 0x0c, 0x00, 0x0b, 0x00, 0x00, 0x00,
  0x00, 0x00, 0x04, 0x00, 0x0c, 0x00, 0x00, 0x00, 0x46, 0x00, 0x00, 0x00,
  0x00, 0x00, 0x00, 0x46
};
unsigned int fall_detection_model_tflite_len = 11896;
